unsigned char model_tflite[] = {
  0x1c, 0x00, 0x00, 0x00, 0x54, 0x46, 0x4c, 0x33, 0x14, 0x00, 0x20, 0x00,
  0x1c, 0x00, 0x18, 0x00, 0x14, 0x00, 0x10, 0x00, 0x0c, 0x00, 0x00, 0x00,
  0x08, 0x00, 0x04, 0x00, 0x14, 0x00, 0x00, 0x00, 0x1c, 0x00, 0x00, 0x00,
  0x94, 0x00, 0x00, 0x00, 0xec, 0x00, 0x00, 0x00, 0x90, 0x2f, 0x00, 0x00,
  0xa0, 0x2f, 0x00, 0x00, 0x78, 0x35, 0x00, 0x00, 0x03, 0x00, 0x00, 0x00,
  0x01, 0x00, 0x00, 0x00, 0x10, 0x00, 0x00, 0x00, 0x00, 0x00, 0x0a, 0x00,
  0x10, 0x00, 0x0c, 0x00, 0x08, 0x00, 0x04, 0x00, 0x0a, 0x00, 0x00, 0x00,
  0x0c, 0x00, 0x00, 0x00, 0x1c, 0x00, 0x00, 0x00, 0x38, 0x00, 0x00, 0x00,
  0x0f, 0x00, 0x00, 0x00, 0x73, 0x65, 0x72, 0x76, 0x69, 0x6e, 0x67, 0x5f,
  0x64, 0x65, 0x66, 0x61, 0x75, 0x6c, 0x74, 0x00, 0x01, 0x00, 0x00, 0x00,
  0x04, 0x00, 0x00, 0x00, 0x94, 0xff, 0xff, 0xff, 0x0a, 0x00, 0x00, 0x00,
  0x04, 0x00, 0x00, 0x00, 0x07, 0x00, 0x00, 0x00, 0x64, 0x65, 0x6e, 0x73,
  0x65, 0x5f, 0x36, 0x00, 0x01, 0x00, 0x00, 0x00, 0x04, 0x00, 0x00, 0x00,
  0x52, 0xd0, 0xff, 0xff, 0x04, 0x00, 0x00, 0x00, 0x0d, 0x00, 0x00, 0x00,
  0x64, 0x65, 0x6e, 0x73, 0x65, 0x5f, 0x34, 0x5f, 0x69, 0x6e, 0x70, 0x75,
  0x74, 0x00, 0x00, 0x00, 0x02, 0x00, 0x00, 0x00, 0x34, 0x00, 0x00, 0x00,
  0x04, 0x00, 0x00, 0x00, 0xdc, 0xff, 0xff, 0xff, 0x0d, 0x00, 0x00, 0x00,
  0x04, 0x00, 0x00, 0x00, 0x13, 0x00, 0x00, 0x00, 0x43, 0x4f, 0x4e, 0x56,
  0x45, 0x52, 0x53, 0x49, 0x4f, 0x4e, 0x5f, 0x4d, 0x45, 0x54, 0x41, 0x44,
  0x41, 0x54, 0x41, 0x00, 0x08, 0x00, 0x0c, 0x00, 0x08, 0x00, 0x04, 0x00,
  0x08, 0x00, 0x00, 0x00, 0x0c, 0x00, 0x00, 0x00, 0x04, 0x00, 0x00, 0x00,
  0x13, 0x00, 0x00, 0x00, 0x6d, 0x69, 0x6e, 0x5f, 0x72, 0x75, 0x6e, 0x74,
  0x69, 0x6d, 0x65, 0x5f, 0x76, 0x65, 0x72, 0x73, 0x69, 0x6f, 0x6e, 0x00,
  0x0e, 0x00, 0x00, 0x00, 0xa0, 0x2e, 0x00, 0x00, 0x98, 0x2e, 0x00, 0x00,
  0x78, 0x2e, 0x00, 0x00, 0xe8, 0x2d, 0x00, 0x00, 0xd8, 0x2c, 0x00, 0x00,
  0xc8, 0x22, 0x00, 0x00, 0xb8, 0x02, 0x00, 0x00, 0xa8, 0x00, 0x00, 0x00,
  0xa0, 0x00, 0x00, 0x00, 0x98, 0x00, 0x00, 0x00, 0x90, 0x00, 0x00, 0x00,
  0x88, 0x00, 0x00, 0x00, 0x68, 0x00, 0x00, 0x00, 0x04, 0x00, 0x00, 0x00,
  0x06, 0xd1, 0xff, 0xff, 0x04, 0x00, 0x00, 0x00, 0x54, 0x00, 0x00, 0x00,
  0x0c, 0x00, 0x00, 0x00, 0x08, 0x00, 0x0e, 0x00, 0x08, 0x00, 0x04, 0x00,
  0x08, 0x00, 0x00, 0x00, 0x10, 0x00, 0x00, 0x00, 0x24, 0x00, 0x00, 0x00,
  0x00, 0x00, 0x06, 0x00, 0x08, 0x00, 0x04, 0x00, 0x06, 0x00, 0x00, 0x00,
  0x04, 0x00, 0x00, 0x00, 0x00, 0x00, 0x00, 0x00, 0x00, 0x00, 0x0a, 0x00,
  0x10, 0x00, 0x0c, 0x00, 0x08, 0x00, 0x04, 0x00, 0x0a, 0x00, 0x00, 0x00,
  0x02, 0x00, 0x00, 0x00, 0x02, 0x00, 0x00, 0x00, 0x04, 0x00, 0x00, 0x00,
  0x06, 0x00, 0x00, 0x00, 0x32, 0x2e, 0x31, 0x34, 0x2e, 0x31, 0x00, 0x00,
  0x66, 0xd1, 0xff, 0xff, 0x04, 0x00, 0x00, 0x00, 0x10, 0x00, 0x00, 0x00,
  0x31, 0x2e, 0x35, 0x2e, 0x30, 0x00, 0x00, 0x00, 0x00, 0x00, 0x00, 0x00,
  0x00, 0x00, 0x00, 0x00, 0x58, 0xcc, 0xff, 0xff, 0x5c, 0xcc, 0xff, 0xff,
  0x60, 0xcc, 0xff, 0xff, 0x64, 0xcc, 0xff, 0xff, 0x92, 0xd1, 0xff, 0xff,
  0x04, 0x00, 0x00, 0x00, 0x00, 0x02, 0x00, 0x00, 0x10, 0x99, 0x57, 0x3e,
  0xea, 0x33, 0xd9, 0x3e, 0xf9, 0xfa, 0xf7, 0xbd, 0x67, 0xbb, 0x88, 0xbd,
  0xd9, 0x4f, 0xd2, 0x3e, 0x87, 0x84, 0x31, 0xbe, 0x24, 0xd5, 0x1e, 0x3f,
  0x14, 0xd5, 0x96, 0x3e, 0x6c, 0x8a, 0xcc, 0xbf, 0xf7, 0x27, 0xf3, 0x3d,
  0x48, 0xee, 0x60, 0xbc, 0x6a, 0xf7, 0xca, 0x3e, 0x15, 0xc5, 0xea, 0xbd,
  0x71, 0x29, 0xb5, 0xbe, 0xae, 0x88, 0xa8, 0xbe, 0xf4, 0xc6, 0x0c, 0x3e,
  0x29, 0x49, 0x6b, 0xbf, 0x3f, 0x53, 0xad, 0xbe, 0x38, 0x5c, 0xed, 0xbe,
  0x02, 0x0e, 0x82, 0xbf, 0x7d, 0x73, 0xf3, 0x3c, 0xff, 0x0b, 0xd2, 0xbc,
  0xb5, 0xd0, 0xa2, 0x3e, 0x4e, 0xe8, 0xea, 0xbe, 0xc5, 0x1f, 0x90, 0xbf,
  0x4b, 0x56, 0x14, 0xbf, 0x64, 0x21, 0xe2, 0x3f, 0x2a, 0xf8, 0xf8, 0xbe,
  0x30, 0x59, 0x04, 0xbf, 0x12, 0x85, 0x9f, 0xbe, 0x29, 0x3d, 0xaa, 0xbf,
  0x5d, 0xa5, 0x86, 0x3e, 0x52, 0x3a, 0x50, 0xbf, 0x01, 0xda, 0x1f, 0x3f,
  0xed, 0xd3, 0xe1, 0x3e, 0x94, 0x9c, 0x55, 0x39, 0x33, 0x99, 0x09, 0x3f,
  0x13, 0x75, 0x9c, 0x3e, 0x69, 0x37, 0x93, 0x3e, 0x69, 0x76, 0x8b, 0xbe,
  0x0a, 0x62, 0x89, 0xbf, 0x14, 0x2b, 0x34, 0xbe, 0x8c, 0xa5, 0x1b, 0xbf,
  0x99, 0xca, 0x07, 0xbe, 0x19, 0x7f, 0x25, 0x3f, 0xd6, 0x54, 0xe2, 0xbe,
  0xa8, 0x4e, 0x23, 0x3f, 0x21, 0x58, 0xa3, 0x3d, 0x27, 0x1f, 0x58, 0xbe,
  0x88, 0x35, 0x08, 0xbf, 0x60, 0xa4, 0x3f, 0x3d, 0x55, 0x43, 0x4d, 0x3f,
  0xb5, 0xa1, 0x24, 0xbf, 0xa0, 0x5b, 0x2f, 0x3f, 0x00, 0xe6, 0xd0, 0x3d,
  0x78, 0x60, 0x65, 0xbf, 0x8a, 0xab, 0x7e, 0x3f, 0xb4, 0x58, 0x12, 0xbf,
  0x54, 0xc4, 0x91, 0xbf, 0xd9, 0xcb, 0x89, 0xbf, 0x97, 0xfb, 0x8e, 0xbe,
  0xf7, 0x61, 0x0d, 0x3f, 0x06, 0xdd, 0xe0, 0x3d, 0x61, 0x64, 0x91, 0x3e,
  0x1f, 0xec, 0x0a, 0xbf, 0x7e, 0xd2, 0x81, 0xbc, 0x29, 0xc7, 0x98, 0x3e,
  0xbc, 0x4b, 0xf0, 0xbd, 0x54, 0x05, 0x43, 0xbf, 0x79, 0x3e, 0xab, 0x3e,
  0x69, 0xc0, 0x30, 0xbf, 0x52, 0x73, 0xd2, 0xbe, 0xc4, 0x93, 0x11, 0xbf,
  0x56, 0x2f, 0x4c, 0xbe, 0xee, 0x33, 0xe7, 0x3e, 0x37, 0x83, 0x1a, 0x3e,
  0x0a, 0xc4, 0xa2, 0x3e, 0xfb, 0x89, 0x4c, 0x3f, 0x5c, 0xe3, 0x85, 0xbf,
  0xdd, 0x23, 0xf4, 0x3d, 0x23, 0x0a, 0xab, 0x3d, 0xce, 0x42, 0x86, 0xbe,
  0x95, 0x2e, 0xbd, 0xbe, 0x59, 0xc8, 0x89, 0x3d, 0x8d, 0x9e, 0x68, 0x3f,
  0x9b, 0xbc, 0x91, 0xbf, 0xb8, 0x94, 0xef, 0xbd, 0xb8, 0x5f, 0xa5, 0x3f,
  0x9c, 0x82, 0x2e, 0xbe, 0x13, 0x83, 0x70, 0xbf, 0xb0, 0xbf, 0x7f, 0xbf,
  0xea, 0x8f, 0xee, 0xbd, 0x15, 0xb9, 0xc9, 0x3e, 0x58, 0x96, 0x08, 0x3e,
  0x00, 0xe0, 0x3b, 0x3f, 0xf4, 0x94, 0xb2, 0x3e, 0xdd, 0xf3, 0x43, 0x3f,
  0x02, 0x7a, 0x94, 0xbf, 0x82, 0xc7, 0xf1, 0xbc, 0x9c, 0x72, 0x91, 0x3e,
  0x7f, 0x75, 0x7e, 0xbe, 0xb9, 0xb4, 0xa8, 0x3e, 0x49, 0xdc, 0x39, 0x3e,
  0xff, 0x23, 0x9b, 0xbe, 0x93, 0xd9, 0xa6, 0x3f, 0xe1, 0x64, 0x59, 0x3d,
  0xae, 0x4e, 0x72, 0x3e, 0x03, 0x98, 0x1c, 0x3e, 0xa3, 0x33, 0x37, 0xbf,
  0xe1, 0x38, 0xec, 0x3d, 0x2c, 0x27, 0xbb, 0xbe, 0x9f, 0xaf, 0x89, 0xbf,
  0x19, 0x78, 0x80, 0x3f, 0x82, 0xda, 0xb1, 0x3e, 0x10, 0x40, 0xb2, 0x3e,
  0x96, 0x26, 0x67, 0xbe, 0x54, 0xf2, 0xb2, 0xbe, 0xda, 0x65, 0x5f, 0xbd,
  0xf6, 0xf8, 0x00, 0x3f, 0x15, 0x7a, 0x98, 0xbe, 0xb5, 0x36, 0xef, 0xbd,
  0x76, 0x07, 0xb9, 0x3f, 0xf5, 0x74, 0x58, 0xbf, 0x06, 0x6f, 0xac, 0x3f,
  0xdd, 0xd0, 0x58, 0x3e, 0xc0, 0x22, 0x01, 0x3f, 0x43, 0xaf, 0x5b, 0xbe,
  0x04, 0x20, 0xa3, 0xbe, 0x9e, 0xd3, 0xff, 0xff, 0x04, 0x00, 0x00, 0x00,
  0x00, 0x20, 0x00, 0x00, 0x17, 0xd8, 0xbd, 0xbe, 0x0b, 0x4f, 0x0f, 0xbf,
  0xaa, 0xe3, 0x12, 0xbd, 0x6f, 0xe0, 0x5b, 0x3e, 0x5c, 0x02, 0xd3, 0xba,
  0x91, 0xe2, 0xdb, 0x3d, 0xbf, 0xef, 0x62, 0x3d, 0x8b, 0xb9, 0xca, 0xbe,
  0x2a, 0x00, 0xa3, 0x3d, 0xd8, 0x7e, 0x4b, 0xbd, 0xe4, 0x2b, 0x2e, 0x3e,
  0xc9, 0x93, 0x48, 0xbe, 0x0d, 0x81, 0xec, 0x3d, 0x97, 0xe2, 0x05, 0x3e,
  0xf9, 0xa9, 0x13, 0x3e, 0x87, 0x2f, 0x99, 0xbe, 0xad, 0x31, 0xab, 0x3e,
  0x11, 0x9c, 0x5f, 0xbe, 0x55, 0x26, 0xa5, 0xbd, 0x80, 0x8f, 0x7b, 0xbd,
  0xad, 0x87, 0x08, 0x3e, 0x9e, 0xbb, 0x4a, 0x3e, 0x45, 0x12, 0x88, 0xbc,
  0xc0, 0x55, 0x83, 0xbf, 0xfc, 0x89, 0xcf, 0x3c, 0x63, 0x21, 0xb1, 0xbe,
  0xd8, 0x8b, 0x1d, 0xbe, 0x93, 0xe8, 0x5c, 0x3e, 0x9c, 0x98, 0x52, 0xbf,
  0x0e, 0xee, 0xd5, 0x3e, 0x33, 0x46, 0xfd, 0x3e, 0xbe, 0x3d, 0xf3, 0xbd,
  0x2c, 0xc7, 0x4c, 0xba, 0x38, 0x2c, 0x82, 0x3e, 0xdd, 0xa2, 0x04, 0x3e,
  0x38, 0x81, 0xcb, 0x3e, 0xf8, 0xf5, 0xd8, 0xbd, 0xa8, 0xd3, 0xaf, 0x3e,
  0xa1, 0x12, 0x44, 0x3d, 0x2b, 0xdb, 0x7d, 0x3f, 0xad, 0xa5, 0x50, 0x3d,
  0x66, 0xaa, 0x81, 0xbe, 0x7d, 0x8f, 0x82, 0x3e, 0x39, 0x1a, 0xa8, 0x3d,
  0x52, 0x9e, 0xc3, 0x3e, 0x0b, 0x64, 0x7d, 0x3d, 0x3a, 0xb6, 0x15, 0xbe,
  0xf9, 0xae, 0x78, 0xbe, 0x09, 0x27, 0xcc, 0x3d, 0x2c, 0x96, 0xca, 0xbe,
  0xb5, 0x1c, 0xc8, 0x3e, 0x4b, 0xfa, 0xe3, 0xbe, 0xe2, 0x03, 0xee, 0x3d,
  0xd2, 0x45, 0x6a, 0xbe, 0xdc, 0x51, 0x1b, 0xbf, 0xd2, 0x48, 0x9e, 0x3e,
  0x6d, 0x3f, 0xac, 0xbd, 0x6b, 0x97, 0xaf, 0x3e, 0x3c, 0xfb, 0x53, 0xbd,
  0xb5, 0x9a, 0x02, 0xbe, 0x27, 0xb5, 0xb2, 0xbe, 0x38, 0xa8, 0x2c, 0x3e,
  0xd1, 0x9b, 0x1f, 0xbf, 0x51, 0xb3, 0x32, 0xbd, 0xc2, 0x88, 0x0e, 0x3f,
  0x5f, 0x70, 0x65, 0x3d, 0x1f, 0x73, 0x5b, 0xbe, 0x1d, 0x6d, 0xfa, 0xbe,
  0xb9, 0x63, 0x82, 0x3d, 0xae, 0x4e, 0xaf, 0x3d, 0xd8, 0x88, 0xdc, 0xbe,
  0x3f, 0x2c, 0x00, 0xbf, 0x30, 0xa7, 0x24, 0x3e, 0x70, 0x5e, 0x42, 0x3e,
  0x8f, 0xbf, 0xc1, 0xbe, 0xa2, 0x2d, 0x6d, 0xbe, 0xaf, 0x8d, 0xf1, 0xbd,
  0x51, 0x21, 0xac, 0x3b, 0x08, 0xe2, 0x48, 0x3e, 0x61, 0x5c, 0x00, 0xbe,
  0xc9, 0xb5, 0xbe, 0xbe, 0xe7, 0xe3, 0x4b, 0xbf, 0x9d, 0x9e, 0xeb, 0xbd,
  0x00, 0x72, 0x67, 0xbe, 0x31, 0xb1, 0x67, 0xbe, 0x73, 0xbc, 0x6c, 0x3b,
  0xa5, 0x9e, 0x68, 0xbe, 0xb5, 0x92, 0x10, 0xbe, 0x84, 0xab, 0xae, 0xbc,
  0xf4, 0xab, 0x01, 0xbf, 0x8d, 0x72, 0x89, 0xbd, 0xc2, 0x14, 0x93, 0xbe,
  0x5e, 0x28, 0x02, 0xbe, 0x11, 0x41, 0xcd, 0x3d, 0x0b, 0x7d, 0x98, 0xbe,
  0xed, 0xc0, 0x50, 0xbf, 0xcc, 0x17, 0x98, 0x3d, 0x60, 0x06, 0x0c, 0xbd,
  0xd1, 0x3d, 0x4c, 0x3e, 0xff, 0x2d, 0x81, 0xbd, 0x43, 0x9d, 0x3b, 0x3d,
  0xfc, 0x5c, 0x6e, 0xbc, 0xdd, 0x96, 0x5e, 0x3d, 0xbd, 0x7a, 0xbb, 0xbe,
  0x50, 0x5f, 0x29, 0xbe, 0x24, 0xfc, 0x0c, 0xbe, 0xf8, 0x38, 0x84, 0x3d,
  0x7c, 0x1f, 0x43, 0x3e, 0xee, 0x23, 0x34, 0xbe, 0x73, 0x35, 0x4a, 0xbf,
  0x99, 0xc5, 0x8b, 0xbd, 0xc4, 0xfa, 0x7a, 0xbd, 0xfe, 0x5f, 0x91, 0x3d,
  0xd0, 0x19, 0x13, 0xbe, 0xa5, 0x2d, 0x89, 0x3e, 0xc7, 0x1d, 0x31, 0xbf,
  0xe1, 0x7a, 0xbe, 0x3d, 0xff, 0x6e, 0x90, 0xbe, 0x78, 0xd7, 0xbe, 0xbe,
  0xba, 0xbe, 0x10, 0x3e, 0x5b, 0xc4, 0xa9, 0xbd, 0x00, 0x3f, 0x97, 0xbe,
  0x58, 0xc7, 0x2a, 0x3e, 0x4d, 0x87, 0xf1, 0xbd, 0x80, 0x65, 0x3f, 0xbf,
  0xc2, 0x76, 0x61, 0xbe, 0x69, 0x2b, 0xfe, 0xbe, 0x6a, 0xe6, 0x0c, 0xbc,
  0x2f, 0xf4, 0xb6, 0x3c, 0x49, 0x51, 0xf8, 0x3d, 0xf0, 0x8e, 0xdb, 0xbc,
  0x2d, 0x33, 0x4e, 0x3e, 0x9d, 0xb2, 0x71, 0x3e, 0x08, 0x6e, 0xea, 0xbd,
  0xdc, 0xf6, 0x01, 0x3d, 0x0f, 0x03, 0x23, 0x3d, 0x4c, 0xa6, 0x2b, 0x3e,
  0xe8, 0xdb, 0xa4, 0x3e, 0x7d, 0x0a, 0xac, 0x3e, 0xac, 0xa0, 0x23, 0xbd,
  0xae, 0x2a, 0x8d, 0x3e, 0x53, 0x7e, 0x48, 0x3d, 0x61, 0xd4, 0x05, 0xbe,
  0xdc, 0x62, 0x42, 0xbc, 0xed, 0x33, 0x82, 0xbd, 0x50, 0xdb, 0x0b, 0x3e,
  0xac, 0xb1, 0xb1, 0x3e, 0x77, 0x0d, 0xa7, 0x3c, 0x6a, 0xd7, 0x06, 0xbe,
  0x8b, 0x8d, 0xa6, 0x3e, 0xdc, 0x51, 0x0b, 0x3e, 0xca, 0x82, 0xc6, 0x3d,
  0x9d, 0x17, 0xa9, 0x3e, 0x06, 0x1d, 0x5a, 0x3d, 0x0b, 0x53, 0x32, 0x3c,
  0x83, 0x5a, 0xf0, 0xbd, 0x67, 0x16, 0x0b, 0x3e, 0x49, 0xc7, 0x26, 0xbe,
  0x16, 0x81, 0xba, 0x3e, 0xde, 0x4b, 0x79, 0xbd, 0xc2, 0xd0, 0x95, 0x3d,
  0x3f, 0x37, 0x8e, 0xbd, 0xe5, 0xc1, 0x73, 0xbd, 0xcf, 0x3c, 0x2b, 0x3e,
  0xd8, 0x54, 0x7e, 0x3e, 0xcd, 0x78, 0x40, 0xbe, 0x8a, 0x29, 0x06, 0xbe,
  0xe7, 0x84, 0xd5, 0xbe, 0x2d, 0x6c, 0x15, 0x3e, 0x7e, 0xec, 0xbb, 0xbe,
  0xdf, 0x13, 0x6f, 0xbe, 0xbb, 0x33, 0x66, 0x3c, 0x9a, 0x3a, 0x84, 0xbb,
  0x14, 0x42, 0x8f, 0x3e, 0x18, 0x5b, 0xdc, 0x3d, 0x6d, 0xd2, 0x01, 0x3e,
  0xfa, 0xc1, 0x8a, 0xbc, 0x7a, 0x81, 0x6a, 0x3e, 0xa9, 0x56, 0x36, 0xbe,
  0xc3, 0xcd, 0xcf, 0x3d, 0x82, 0x9c, 0xa4, 0x3c, 0xf5, 0xaf, 0x3d, 0xbc,
  0xa8, 0xd3, 0x22, 0xbc, 0xc1, 0xb9, 0x56, 0x3d, 0xf4, 0x00, 0x1e, 0x3e,
  0xd5, 0x02, 0x25, 0x3e, 0xf6, 0xbb, 0xa5, 0x3e, 0xbf, 0x3f, 0x4b, 0x3f,
  0x48, 0x58, 0xa1, 0x3d, 0x25, 0x9c, 0xa9, 0xbe, 0xc3, 0xd8, 0x38, 0x3c,
  0x95, 0xaf, 0xb5, 0x3e, 0xef, 0x15, 0x00, 0xbf, 0xd0, 0xd2, 0xed, 0xbe,
  0x30, 0x78, 0x25, 0xbe, 0xef, 0xe3, 0x85, 0xbe, 0x19, 0x92, 0x50, 0xbe,
  0x10, 0x97, 0x0c, 0x3e, 0x35, 0x3c, 0x95, 0x3e, 0x66, 0xad, 0xcb, 0xbe,
  0x98, 0x73, 0xbb, 0xbe, 0x72, 0xfb, 0x0e, 0xbe, 0xfc, 0x5e, 0x85, 0x3c,
  0x45, 0x5a, 0x8d, 0xbe, 0xe5, 0xa3, 0x58, 0x3e, 0x46, 0x31, 0xab, 0x3d,
  0x0b, 0xaa, 0x06, 0xbe, 0xe7, 0xf8, 0x49, 0xbc, 0xf1, 0xe0, 0xb5, 0xbe,
  0x83, 0x2d, 0x78, 0xbe, 0xc5, 0x61, 0x43, 0x3e, 0x57, 0x7e, 0x7a, 0xbd,
  0x8b, 0x08, 0x03, 0x3e, 0xa8, 0x27, 0xf2, 0x3d, 0x8a, 0x31, 0x61, 0x3e,
  0x5f, 0xdc, 0x22, 0xbe, 0x67, 0xe8, 0xfd, 0x3d, 0xb9, 0xed, 0x46, 0x3c,
  0xc3, 0xec, 0xe1, 0xbd, 0xd1, 0x54, 0x25, 0xbe, 0xd0, 0x15, 0xf7, 0x3c,
  0x11, 0xf6, 0xb0, 0x3e, 0x8d, 0x2b, 0x9d, 0x3d, 0xf2, 0x7d, 0x4d, 0x3e,
  0xdb, 0xc5, 0x5d, 0xbe, 0x06, 0x6b, 0xa1, 0xbd, 0x94, 0xc4, 0xa4, 0xbd,
  0xda, 0x08, 0xa0, 0x3e, 0x38, 0x3d, 0x0f, 0xbe, 0xd7, 0xd3, 0xf0, 0x3d,
  0x8d, 0x4d, 0xfb, 0x3d, 0x42, 0xc9, 0x74, 0x3f, 0x49, 0xda, 0x26, 0xbe,
  0xdc, 0x72, 0xe4, 0x3d, 0x26, 0x6b, 0x8b, 0xbd, 0xe5, 0x14, 0xc6, 0x3e,
  0x9c, 0x5b, 0x0d, 0xbe, 0x8e, 0x6e, 0xac, 0xbc, 0xa5, 0x2f, 0x55, 0x3d,
  0xd1, 0xb9, 0x15, 0x3e, 0x45, 0xc8, 0xe6, 0x3d, 0x66, 0x97, 0xcc, 0x3c,
  0xe5, 0xb8, 0xd9, 0x3d, 0xa8, 0x1f, 0xaf, 0xbc, 0x26, 0x27, 0xc9, 0x3d,
  0x97, 0x56, 0xf8, 0xbe, 0xfa, 0xc9, 0x1c, 0xbe, 0x27, 0x95, 0x8c, 0xbd,
  0xc5, 0x38, 0x96, 0x3d, 0xa4, 0xc5, 0x2d, 0x3e, 0xc5, 0xec, 0x5c, 0xbe,
  0x0c, 0xb2, 0x34, 0x3e, 0xd5, 0x9d, 0x11, 0xbe, 0xb0, 0xd0, 0xa8, 0xbc,
  0x1a, 0xde, 0x85, 0xbe, 0xad, 0xfa, 0x50, 0x3e, 0xcb, 0xd4, 0xed, 0x3d,
  0xfc, 0xd8, 0xde, 0xbe, 0xd0, 0x33, 0x72, 0x3e, 0x67, 0xc5, 0x5a, 0xbf,
  0xee, 0x4e, 0x4e, 0xbd, 0x0a, 0xac, 0x15, 0x3d, 0x50, 0x25, 0x0f, 0x3e,
  0x45, 0x18, 0x70, 0xbe, 0x06, 0xb4, 0x44, 0x3d, 0x08, 0x75, 0xa9, 0x3c,
  0xdb, 0x12, 0xa5, 0x3e, 0x7b, 0x24, 0x27, 0xbf, 0x3a, 0x91, 0x87, 0xbd,
  0x73, 0x99, 0xc2, 0xbd, 0x27, 0x5a, 0x12, 0x3c, 0x0f, 0xd5, 0xb3, 0x3e,
  0x07, 0x98, 0x41, 0xbe, 0xee, 0x5c, 0x92, 0xba, 0x3d, 0x01, 0x34, 0x3e,
  0x29, 0x0d, 0x41, 0xbf, 0x80, 0x2d, 0x85, 0xbd, 0xe0, 0xba, 0xac, 0xbd,
  0xb3, 0x96, 0xa9, 0xbc, 0x84, 0x3a, 0x6b, 0x3d, 0x5b, 0x9c, 0x14, 0xbe,
  0x61, 0x32, 0xa3, 0xbf, 0xb4, 0xd8, 0xdc, 0xbd, 0x0b, 0xbe, 0x69, 0xbe,
  0x6f, 0xa6, 0x14, 0xbf, 0x13, 0x3e, 0x57, 0x3d, 0x26, 0x8a, 0xca, 0xbe,
  0x27, 0x25, 0x97, 0xbf, 0x01, 0xd6, 0x0b, 0x3e, 0xb7, 0x6c, 0x2f, 0x3e,
  0x45, 0xfb, 0x88, 0x3c, 0xde, 0x55, 0x3a, 0xbe, 0xa4, 0x42, 0x5c, 0x3e,
  0xeb, 0x8c, 0x11, 0xbe, 0xb9, 0xfa, 0x63, 0x3d, 0xd4, 0x7d, 0xfc, 0xbe,
  0x8b, 0xab, 0xbb, 0xbe, 0xf2, 0xbe, 0xd7, 0x3c, 0x36, 0x31, 0x29, 0xbd,
  0x19, 0x9a, 0x38, 0xbd, 0xf1, 0xa1, 0x45, 0x3e, 0x44, 0x71, 0xf6, 0xbd,
  0x46, 0x6c, 0xd6, 0xbd, 0xb0, 0xf7, 0xfd, 0xbe, 0xd4, 0xa3, 0x62, 0x3e,
  0x8f, 0xbb, 0x5b, 0xbd, 0x88, 0x88, 0x58, 0xbc, 0x04, 0xe1, 0x8b, 0x3d,
  0xcc, 0x83, 0x45, 0x3d, 0x19, 0xfe, 0xf9, 0x3c, 0xb6, 0x96, 0x4e, 0x3d,
  0x42, 0x07, 0x3a, 0xbe, 0x59, 0x12, 0xa1, 0x3e, 0x6c, 0x3b, 0x13, 0xbd,
  0x75, 0xa8, 0x25, 0x3e, 0x7c, 0x99, 0xc0, 0xbe, 0x60, 0xbd, 0x4e, 0xbd,
  0x63, 0xc9, 0xc0, 0xbe, 0xc1, 0xcf, 0xc8, 0xbe, 0xa0, 0x36, 0x15, 0x3d,
  0xe9, 0x50, 0x0d, 0x3e, 0xe1, 0x68, 0xd4, 0x3e, 0x8c, 0xa6, 0xf0, 0x3d,
  0x21, 0xdb, 0x06, 0xbe, 0xb4, 0xdc, 0x35, 0x3e, 0xdb, 0x1a, 0x47, 0x3d,
  0xef, 0x02, 0x2e, 0x3e, 0x93, 0x38, 0x09, 0xbd, 0xa6, 0xa5, 0xcd, 0x3c,
  0x03, 0x6a, 0xa8, 0x3e, 0xaa, 0x50, 0x58, 0x3e, 0x3d, 0x97, 0x22, 0x3c,
  0x1d, 0xd6, 0xae, 0xbe, 0xa8, 0xea, 0xab, 0xbd, 0x4d, 0x71, 0x7f, 0xbe,
  0x62, 0x34, 0x8b, 0xbe, 0x41, 0x85, 0x2c, 0x3e, 0x8a, 0x6a, 0xe0, 0xbd,
  0x8f, 0xd4, 0x89, 0x3e, 0x9c, 0x84, 0xb1, 0x3d, 0x5c, 0x2d, 0xb0, 0xbe,
  0x90, 0x35, 0x8f, 0x3e, 0xde, 0x06, 0x3e, 0xbd, 0x2d, 0x27, 0xb3, 0xbd,
  0x72, 0xcc, 0x8d, 0x3e, 0x28, 0x0c, 0x1a, 0xbc, 0x3b, 0xa9, 0x8d, 0xbe,
  0xab, 0xdc, 0x43, 0xbe, 0xdd, 0x94, 0xd5, 0x3c, 0xce, 0x41, 0x28, 0xbd,
  0xb3, 0x74, 0x0d, 0x3f, 0x4f, 0x0f, 0xc4, 0x3d, 0x68, 0xe8, 0x30, 0xbc,
  0x6e, 0xac, 0xa0, 0x3d, 0x28, 0x5c, 0x36, 0xbf, 0xd9, 0x23, 0x69, 0x3e,
  0x16, 0x0e, 0xf2, 0xbd, 0x5e, 0xe6, 0x33, 0x3e, 0xb7, 0x55, 0x42, 0xbb,
  0xf0, 0xc1, 0x93, 0x3f, 0xee, 0xe1, 0x82, 0x3d, 0xbd, 0x99, 0x89, 0xbe,
  0xfc, 0xb9, 0x03, 0xbe, 0xbc, 0x75, 0x0c, 0x3e, 0x3f, 0xbf, 0xab, 0x3e,
  0xa5, 0xa4, 0xb8, 0x3d, 0xa8, 0x01, 0x05, 0xbf, 0xa7, 0xc1, 0x6d, 0x3d,
  0xa8, 0x77, 0x11, 0x3d, 0x70, 0x47, 0x71, 0xbe, 0x4f, 0x24, 0x8d, 0xbe,
  0x59, 0x5a, 0xa6, 0xbe, 0x14, 0x42, 0xa8, 0xbe, 0x1b, 0xe5, 0x95, 0x3e,
  0x76, 0x10, 0x63, 0xbd, 0xca, 0x64, 0x13, 0xbe, 0xfb, 0xab, 0xb6, 0xbe,
  0x04, 0x5a, 0xc5, 0x3e, 0x25, 0xce, 0x48, 0xbd, 0x5f, 0x3d, 0x26, 0x3f,
  0x1e, 0x2a, 0xf5, 0xbd, 0xaf, 0x8f, 0xea, 0xbd, 0xde, 0x7a, 0x8d, 0x3e,
  0x17, 0x97, 0x9c, 0x3e, 0xf0, 0xf8, 0xf9, 0x3d, 0x41, 0x5d, 0x35, 0xbe,
  0x0d, 0xea, 0xd4, 0x3d, 0x1e, 0x63, 0x56, 0xbf, 0xb1, 0xc9, 0xd5, 0xbd,
  0x8f, 0xa3, 0xc1, 0x3d, 0x23, 0xc3, 0x5a, 0xbc, 0xec, 0xa8, 0x05, 0xbf,
  0x9c, 0xa3, 0xe0, 0xbe, 0xf3, 0xf2, 0x22, 0xbe, 0xd5, 0xaa, 0xed, 0x3e,
  0xea, 0x9e, 0xda, 0x3d, 0xbd, 0x2c, 0x4d, 0x3d, 0x43, 0xe4, 0xaa, 0x3d,
  0x1b, 0xdd, 0x20, 0x3e, 0x84, 0x39, 0xf9, 0x3e, 0x3c, 0xcc, 0x1a, 0xbe,
  0x06, 0x73, 0x41, 0xbe, 0x14, 0x0d, 0x07, 0x3e, 0x21, 0x3d, 0x74, 0xbf,
  0xc5, 0x5f, 0x72, 0xbe, 0x21, 0xda, 0xaa, 0x3c, 0xd5, 0x4e, 0xb3, 0xbd,
  0x19, 0x30, 0x8f, 0xbe, 0x8c, 0xff, 0x2f, 0x3e, 0x4f, 0x91, 0x7d, 0xbf,
  0x1c, 0x84, 0xa2, 0x3d, 0xb1, 0x48, 0x30, 0x3e, 0xd8, 0xe6, 0x36, 0xbf,
  0xbe, 0x8b, 0x1b, 0x3c, 0xaa, 0x5a, 0xe5, 0xbe, 0xc9, 0x0a, 0x93, 0xbf,
  0x4b, 0x1f, 0x06, 0x3d, 0xeb, 0x91, 0x43, 0x3e, 0x0c, 0xe3, 0x29, 0xbd,
  0x6e, 0xe6, 0xb0, 0xbe, 0x17, 0x49, 0xde, 0x3c, 0x2d, 0x51, 0x65, 0x3e,
  0xd5, 0xcc, 0xe3, 0xbb, 0xc9, 0xac, 0x23, 0x3f, 0x3a, 0x10, 0xf7, 0x3d,
  0xd1, 0xcf, 0x48, 0xbb, 0x88, 0xb5, 0x9b, 0x3e, 0x8d, 0xa2, 0x34, 0xbb,
  0x67, 0xe5, 0x12, 0x3e, 0x6c, 0x6d, 0x3d, 0x3e, 0x4b, 0x79, 0xd6, 0xbd,
  0xd5, 0x18, 0x19, 0xbf, 0xcf, 0xfa, 0x05, 0xbe, 0x0b, 0x33, 0xa6, 0x3a,
  0xf8, 0x90, 0x01, 0x3e, 0x38, 0x3a, 0x5a, 0xbe, 0xf2, 0x98, 0x09, 0x3d,
  0xd9, 0xcb, 0x3e, 0xbe, 0xb3, 0x7f, 0x73, 0xbe, 0x82, 0xfa, 0x7b, 0xbe,
  0x40, 0xac, 0x23, 0x3e, 0xba, 0x85, 0xf9, 0xbd, 0x36, 0xd9, 0x21, 0x3e,
  0xee, 0x3e, 0xa8, 0xbd, 0x0d, 0x81, 0x80, 0xbf, 0xf8, 0x46, 0x42, 0xbf,
  0xe4, 0x34, 0x35, 0xbe, 0x47, 0x5b, 0xbe, 0x3d, 0x07, 0x30, 0xbd, 0x3d,
  0xe3, 0x2a, 0xb6, 0xbe, 0x4e, 0x32, 0x90, 0x3e, 0x56, 0x78, 0x16, 0xbf,
  0x14, 0x3a, 0x22, 0x3e, 0x9e, 0xfa, 0x95, 0x3c, 0x3a, 0xbf, 0x7e, 0x3b,
  0x9e, 0x89, 0xac, 0xbe, 0xde, 0x35, 0x2c, 0xbe, 0xe6, 0xab, 0x95, 0xbe,
  0x01, 0x29, 0x2e, 0x3d, 0x6f, 0x0e, 0xc4, 0x3e, 0x37, 0x12, 0x18, 0xbe,
  0xc0, 0x0c, 0x24, 0x3e, 0x67, 0x23, 0x54, 0x3d, 0xb2, 0x0e, 0x89, 0x3e,
  0x3c, 0xc8, 0xd5, 0xbc, 0xd5, 0x82, 0xa7, 0xbd, 0xfc, 0x2f, 0x94, 0xbd,
  0xcb, 0xed, 0x04, 0xbf, 0xb5, 0x83, 0x0b, 0x3e, 0x61, 0xc5, 0xbf, 0x3d,
  0x36, 0xac, 0xf1, 0xbd, 0x35, 0x1b, 0x23, 0xbe, 0xb8, 0x48, 0xa6, 0x3e,
  0x29, 0xfa, 0x1e, 0xbf, 0x35, 0xab, 0x91, 0xbd, 0x16, 0x5c, 0x21, 0xbd,
  0xb5, 0x68, 0xa8, 0xbd, 0x0b, 0x2e, 0x48, 0x3e, 0x18, 0x4f, 0x16, 0xbf,
  0xfd, 0x9d, 0x4f, 0xbf, 0xe1, 0x34, 0x48, 0x3e, 0x67, 0xe8, 0x13, 0xbe,
  0x73, 0xda, 0x5a, 0x3d, 0xba, 0x60, 0x92, 0xbd, 0x7b, 0x3f, 0x09, 0x3e,
  0xce, 0xe2, 0x4e, 0x3e, 0xef, 0x39, 0x8d, 0x3d, 0x8a, 0x37, 0xb2, 0xbe,
  0x31, 0xce, 0x11, 0xbd, 0xd4, 0x06, 0x4d, 0x3e, 0xae, 0xf3, 0xd3, 0xbd,
  0x06, 0xd2, 0x52, 0x3d, 0xdb, 0x58, 0x75, 0x3e, 0x22, 0x07, 0x5c, 0x3e,
  0x56, 0x3a, 0xb9, 0xbd, 0xa0, 0x1c, 0x7c, 0xbe, 0x6a, 0x2c, 0x24, 0x3e,
  0x04, 0xbb, 0x82, 0xbe, 0x2f, 0xfc, 0x33, 0x3e, 0x0d, 0x2a, 0x94, 0xbe,
  0xcc, 0xa8, 0x96, 0xbc, 0x4c, 0x94, 0xc0, 0xbd, 0xff, 0x8e, 0x5d, 0xbe,
  0xb8, 0x7e, 0x51, 0x3e, 0x18, 0xf7, 0x38, 0x3d, 0x46, 0x3e, 0x02, 0xbf,
  0xf3, 0x2f, 0x5c, 0xbe, 0x84, 0xaa, 0xed, 0xbe, 0x05, 0xa7, 0x8a, 0xbf,
  0xb6, 0x1a, 0x63, 0xbf, 0xdc, 0xbb, 0xf5, 0x3c, 0x6f, 0x6d, 0x20, 0x3e,
  0xc1, 0x2b, 0x46, 0x3e, 0x42, 0xd2, 0x37, 0xbe, 0x3c, 0x97, 0x97, 0xbe,
  0x94, 0xe8, 0x6c, 0x3e, 0x6b, 0xa6, 0x6e, 0x3d, 0x1b, 0x4f, 0xbb, 0x3d,
  0x53, 0x21, 0xff, 0xbe, 0xd4, 0x64, 0xb4, 0xbe, 0x23, 0xef, 0x4a, 0x3d,
  0x3b, 0xcc, 0x85, 0xbf, 0xf3, 0x40, 0x8a, 0xbe, 0xe2, 0xda, 0x6c, 0x3e,
  0x16, 0xe5, 0x16, 0x3e, 0x71, 0xed, 0x1c, 0x3e, 0xaa, 0x4b, 0x8d, 0xbf,
  0x57, 0xc4, 0x15, 0xbe, 0xf4, 0xd1, 0x87, 0xbf, 0x1e, 0xf1, 0x4f, 0xbf,
  0x3f, 0xb7, 0xda, 0xbe, 0x1b, 0x35, 0xeb, 0xbd, 0x65, 0x52, 0x96, 0x3c,
  0x2b, 0x58, 0x91, 0x3e, 0x13, 0x1b, 0xbf, 0xbc, 0xbd, 0x9d, 0xe0, 0xbe,
  0xb9, 0xd2, 0x16, 0xbf, 0xff, 0x55, 0xc7, 0xbe, 0x08, 0x39, 0x09, 0xc0,
  0xa9, 0x14, 0xd0, 0xbe, 0x50, 0x2d, 0x1e, 0xbf, 0xdc, 0x83, 0x3c, 0x3e,
  0x1e, 0xc3, 0x91, 0x3f, 0xa4, 0x04, 0xdb, 0xbe, 0x90, 0xc2, 0xea, 0x3d,
  0xcd, 0xd2, 0x51, 0x3d, 0x88, 0x3d, 0x77, 0xbf, 0x4d, 0x7d, 0x42, 0x3e,
  0xf7, 0x85, 0xe0, 0x3d, 0xa0, 0x2e, 0xa4, 0x3c, 0x59, 0x30, 0xc1, 0xbf,
  0xb1, 0x2b, 0xbb, 0x3f, 0xbd, 0xc0, 0xaa, 0xbd, 0x02, 0xe1, 0xda, 0xbe,
  0x4e, 0xc1, 0x7a, 0xbf, 0xd6, 0x0b, 0x1c, 0x3e, 0x39, 0x07, 0x0e, 0x3c,
  0x26, 0xd6, 0x42, 0xbf, 0x58, 0xb2, 0x43, 0xbf, 0x7d, 0xf7, 0xc1, 0xbe,
  0x72, 0x0f, 0x23, 0xbf, 0x0c, 0x09, 0x36, 0xbf, 0xb7, 0xa5, 0xc9, 0xbe,
  0xf7, 0xe9, 0xbb, 0x3d, 0x25, 0x2c, 0xbc, 0xbe, 0x3b, 0x49, 0x44, 0x3e,
  0x9b, 0x9f, 0xc9, 0xbd, 0x88, 0xb0, 0xef, 0x3d, 0x8c, 0x65, 0x02, 0xbf,
  0xea, 0x5e, 0x3c, 0x3d, 0xe0, 0x96, 0x21, 0xbf, 0x5f, 0x09, 0x2e, 0x3f,
  0x29, 0x3f, 0x29, 0xbf, 0x92, 0x78, 0x20, 0xbf, 0x78, 0xbb, 0x70, 0xbe,
  0x92, 0xf4, 0x5a, 0x3e, 0xa9, 0xbe, 0xdc, 0x3d, 0x35, 0x7f, 0xea, 0x3d,
  0x90, 0x18, 0xa2, 0xbb, 0xb6, 0x65, 0x05, 0x3d, 0x71, 0xb9, 0xa4, 0x3e,
  0x66, 0x69, 0xe2, 0x3d, 0xd1, 0xda, 0x19, 0x3d, 0xb2, 0xd6, 0x23, 0xbe,
  0xb2, 0x17, 0xa0, 0x3e, 0x69, 0x23, 0x82, 0x3c, 0xf2, 0x0a, 0x2e, 0x3d,
  0xd0, 0x5a, 0x10, 0x3e, 0xd8, 0xde, 0x8c, 0x3e, 0xf2, 0x4e, 0x8a, 0x3e,
  0x74, 0xbd, 0x6d, 0xbe, 0xba, 0x66, 0xab, 0xbd, 0x23, 0x65, 0x71, 0x3d,
  0xc2, 0xb5, 0x98, 0x3e, 0xef, 0xeb, 0x5a, 0xbe, 0xd5, 0xba, 0x15, 0x3e,
  0x99, 0x92, 0x2d, 0xbd, 0xb5, 0x5b, 0xa0, 0xbc, 0x79, 0x66, 0xc4, 0x3e,
  0x2a, 0xfa, 0xa9, 0xbb, 0x92, 0xa9, 0xa4, 0xbd, 0x59, 0xa4, 0xc1, 0xbd,
  0x9d, 0xc5, 0x05, 0xbe, 0xd4, 0x37, 0x0e, 0xbd, 0x94, 0x4c, 0xd6, 0x3d,
  0xe8, 0x8a, 0x78, 0x3e, 0x45, 0xc1, 0x66, 0xbe, 0xe7, 0xe7, 0x0c, 0xbe,
  0x42, 0xd3, 0x91, 0x3e, 0x8f, 0x86, 0x77, 0x3e, 0xa1, 0xf4, 0x43, 0x3e,
  0x66, 0xdc, 0x41, 0x3e, 0x12, 0xb3, 0x7d, 0x3d, 0x76, 0x65, 0x70, 0x3e,
  0x81, 0x79, 0xc2, 0xbd, 0x1e, 0x02, 0x3a, 0x3f, 0x0e, 0xba, 0x02, 0x3f,
  0xee, 0x33, 0xc9, 0xbc, 0xe7, 0xd0, 0x2a, 0xbd, 0x30, 0x93, 0x3d, 0x3e,
  0x73, 0x5f, 0xe3, 0x3d, 0xaf, 0x1f, 0x26, 0x3e, 0x4b, 0xf8, 0x6e, 0xbe,
  0x8d, 0x1e, 0xde, 0xbd, 0x68, 0xeb, 0x0c, 0x3e, 0x4a, 0xc2, 0x3c, 0xbe,
  0x9b, 0x89, 0x92, 0x3e, 0x97, 0x03, 0x53, 0x3d, 0x60, 0xd5, 0x62, 0x3c,
  0x06, 0x6d, 0xa8, 0xbd, 0xc7, 0x7d, 0xc6, 0x3d, 0x17, 0x28, 0xd1, 0x3e,
  0x0a, 0xb0, 0xec, 0x3d, 0x7f, 0x41, 0x60, 0xbe, 0xd9, 0x2c, 0x3e, 0x3e,
  0xeb, 0x65, 0xc1, 0xbe, 0x51, 0xcb, 0xf9, 0xbd, 0x5a, 0x8a, 0x4f, 0x3e,
  0x00, 0xe9, 0xa9, 0xbd, 0xc2, 0x90, 0xb3, 0xba, 0x3d, 0x28, 0x9b, 0xbd,
  0x8c, 0x0b, 0xdf, 0xbd, 0xf9, 0xb6, 0xe5, 0x3d, 0x52, 0x64, 0x69, 0x3e,
  0x8f, 0xab, 0x21, 0xbd, 0x08, 0x2b, 0x68, 0x3d, 0x26, 0xbb, 0x8a, 0xbe,
  0xb0, 0x0f, 0x94, 0xbd, 0xf4, 0xc2, 0x9b, 0x3e, 0xea, 0x43, 0x1e, 0xbd,
  0x24, 0x1a, 0xf0, 0x3e, 0x27, 0x02, 0x24, 0xbf, 0x02, 0x99, 0x06, 0xbe,
  0x4a, 0x97, 0x42, 0xbe, 0xe8, 0x98, 0x59, 0x3e, 0xd8, 0xf2, 0xf4, 0xbc,
  0xd3, 0xdd, 0x2c, 0xbe, 0xd0, 0xf3, 0x90, 0x3a, 0x30, 0x5e, 0x81, 0x3e,
  0x14, 0x80, 0x3a, 0x3e, 0x37, 0xdf, 0x16, 0xbe, 0x44, 0xaf, 0x62, 0x3b,
  0x90, 0xe3, 0x78, 0x3e, 0x6e, 0xd9, 0xa2, 0xbe, 0xb9, 0xf2, 0xd8, 0xbe,
  0x83, 0x0d, 0x1c, 0xbe, 0x2c, 0xa1, 0x52, 0x3e, 0xbc, 0x81, 0x9e, 0xbe,
  0x09, 0x46, 0x9c, 0xbe, 0xde, 0xf9, 0x27, 0xbd, 0x7c, 0xce, 0x67, 0xbe,
  0x81, 0xc4, 0x81, 0xbe, 0x1a, 0x03, 0x57, 0xbe, 0xb4, 0x95, 0xd0, 0xbe,
  0x7e, 0xc6, 0xa9, 0x3d, 0x5e, 0x21, 0xbb, 0xbd, 0x58, 0xec, 0xf1, 0x3d,
  0x73, 0xa7, 0x02, 0x3e, 0xd0, 0x52, 0xc2, 0x3e, 0xf2, 0x9a, 0xac, 0x3e,
  0xdc, 0x67, 0xe6, 0x3d, 0xe9, 0x24, 0xed, 0xbb, 0x4f, 0x40, 0x59, 0x3e,
  0x45, 0xbf, 0xbf, 0x3e, 0xfd, 0xf8, 0x16, 0xbe, 0x2a, 0x74, 0x1a, 0xbe,
  0xc1, 0xf7, 0x31, 0x3e, 0x66, 0xa7, 0x9d, 0xbe, 0x6d, 0x45, 0xc1, 0x3d,
  0xc8, 0x4a, 0x54, 0xbd, 0x33, 0x25, 0x63, 0x3e, 0x43, 0x0d, 0xfc, 0xbc,
  0x29, 0x90, 0xb5, 0x3e, 0xa3, 0x0f, 0xe6, 0xbe, 0x81, 0x94, 0x48, 0x3c,
  0x73, 0xb2, 0x80, 0x3d, 0x25, 0xe8, 0x16, 0xbd, 0xd7, 0xcd, 0xb1, 0x3d,
  0xdb, 0x60, 0x9d, 0xbd, 0x84, 0x57, 0xea, 0xbd, 0xc0, 0x89, 0x2e, 0x3d,
  0x4a, 0x6c, 0xce, 0xbe, 0x27, 0xec, 0x61, 0x3a, 0x67, 0x70, 0xa9, 0x3e,
  0x12, 0x1c, 0x84, 0x3e, 0xbf, 0x9c, 0xb4, 0xbc, 0x5a, 0x56, 0x2e, 0xbe,
  0xf4, 0x73, 0x8b, 0x3e, 0xc8, 0x53, 0x83, 0x3e, 0xb4, 0x7e, 0xc2, 0x3d,
  0xd2, 0xec, 0x24, 0x3e, 0x8f, 0x67, 0x0b, 0xbe, 0xc8, 0xbb, 0x0e, 0x3e,
  0x0a, 0x9d, 0xfc, 0xbd, 0xb5, 0xb3, 0x04, 0x3e, 0x13, 0xcc, 0x0c, 0xbe,
  0x11, 0xfe, 0x44, 0xbc, 0x94, 0x45, 0xcf, 0x3c, 0xb6, 0x4b, 0x5c, 0xbe,
  0xc5, 0x53, 0x88, 0xbe, 0xec, 0x50, 0x44, 0xbc, 0x3a, 0x39, 0x1c, 0xbd,
  0x80, 0x73, 0x7b, 0xbd, 0xae, 0xa7, 0x0c, 0xbe, 0xd5, 0x11, 0x38, 0x3e,
  0xd7, 0x7a, 0xc2, 0x3e, 0x39, 0x8e, 0xf2, 0x3c, 0x64, 0x42, 0x9b, 0xbd,
  0x73, 0x67, 0x41, 0xbf, 0x81, 0x58, 0x14, 0xbc, 0xca, 0x31, 0x4b, 0xbe,
  0x81, 0xba, 0x07, 0xbe, 0x6c, 0xa9, 0xb3, 0x3d, 0x13, 0x53, 0xc0, 0xbd,
  0x6c, 0x93, 0x20, 0xbe, 0xc1, 0x73, 0xa3, 0xbb, 0x4c, 0xc6, 0x90, 0xbb,
  0x55, 0xee, 0x33, 0xbd, 0xdc, 0xb1, 0x36, 0xbe, 0xe7, 0x53, 0xa8, 0x3e,
  0xc8, 0xb0, 0x0c, 0x3e, 0xbc, 0xb3, 0xa7, 0x3c, 0x86, 0xe2, 0x4e, 0xbe,
  0x99, 0x9e, 0xdf, 0x3d, 0x60, 0xa3, 0xf6, 0xbd, 0x53, 0x3d, 0x92, 0x3e,
  0x6d, 0xbd, 0x14, 0x3d, 0xcb, 0xdb, 0xd3, 0xbc, 0x13, 0x0d, 0x09, 0x3e,
  0xf4, 0x60, 0x08, 0x3e, 0xbe, 0xe4, 0x3e, 0x3b, 0x15, 0x96, 0x89, 0x3d,
  0x37, 0xb4, 0x24, 0xbe, 0x8f, 0x16, 0xb0, 0x3d, 0x26, 0x47, 0x2e, 0xbe,
  0x43, 0x36, 0x18, 0x3d, 0x68, 0xe0, 0x03, 0xbe, 0xf3, 0x9a, 0xe4, 0x3d,
  0xc8, 0x78, 0x64, 0xbe, 0xf1, 0x7f, 0x9d, 0x3e, 0x00, 0xec, 0xff, 0x3d,
  0xea, 0xdb, 0xe4, 0x3d, 0x6c, 0xc1, 0xce, 0x3d, 0x2c, 0xb6, 0x4f, 0xbf,
  0x95, 0x95, 0x98, 0x3d, 0xf9, 0xb7, 0x9d, 0xbd, 0xf0, 0x43, 0xb2, 0x3e,
  0xd8, 0x7d, 0x4c, 0x3d, 0x4c, 0xb8, 0x01, 0x3f, 0x3e, 0x4f, 0xd8, 0xbe,
  0x2c, 0xea, 0xc4, 0x3c, 0x2e, 0x0a, 0x8e, 0xbe, 0x4c, 0x17, 0xd9, 0x3b,
  0xce, 0x6e, 0xd5, 0x3d, 0xd6, 0xe8, 0x18, 0xbf, 0xc8, 0x40, 0x0f, 0xbf,
  0xa6, 0x54, 0xcf, 0xbe, 0x64, 0xef, 0x0f, 0xbe, 0x05, 0x7a, 0xb8, 0xbe,
  0x9c, 0xf8, 0x50, 0xbe, 0x25, 0x9b, 0x3a, 0xbf, 0x40, 0xef, 0x2d, 0xbe,
  0x13, 0x85, 0x51, 0x3d, 0x7d, 0x06, 0xef, 0xbc, 0xa5, 0xf0, 0xd6, 0xbe,
  0x5f, 0xaf, 0x48, 0xbf, 0x44, 0xd5, 0xb5, 0xbd, 0x11, 0xbf, 0x43, 0xbe,
  0x0c, 0x59, 0xdb, 0xbe, 0x37, 0x56, 0x87, 0xbd, 0x46, 0x1b, 0x15, 0x3d,
  0xd5, 0xd2, 0x7e, 0x3b, 0x7c, 0xf9, 0x8e, 0x3e, 0x94, 0x68, 0x4c, 0x3c,
  0x2b, 0x02, 0xfb, 0xbc, 0x53, 0x86, 0x1b, 0xbe, 0xf2, 0x9a, 0xb0, 0xbd,
  0xef, 0xa5, 0xbe, 0x3d, 0xee, 0x28, 0xa3, 0xbe, 0xb7, 0xd9, 0xd8, 0xbd,
  0x23, 0x35, 0x47, 0xbd, 0x7e, 0x30, 0xc8, 0xbd, 0xa4, 0xfb, 0x8a, 0xbe,
  0x20, 0x3b, 0x99, 0xbd, 0x9c, 0xaa, 0xff, 0xbd, 0x27, 0xf1, 0x93, 0x3e,
  0x14, 0xf8, 0x23, 0xbe, 0x93, 0x4c, 0x5c, 0xbe, 0x6e, 0xdb, 0x80, 0x3e,
  0x62, 0x20, 0x0c, 0xbe, 0x17, 0x92, 0xc7, 0x3e, 0x23, 0x87, 0x38, 0x3d,
  0xa9, 0xf0, 0xd4, 0x3d, 0x49, 0x3b, 0xcb, 0x3c, 0xb7, 0x4f, 0x62, 0x3e,
  0x64, 0x2a, 0x91, 0xbe, 0x7c, 0xd0, 0x01, 0xbe, 0x83, 0x3d, 0xb2, 0xbe,
  0xad, 0x97, 0xb4, 0xbd, 0x9c, 0x17, 0x71, 0xbe, 0x1d, 0xae, 0xa8, 0xbd,
  0xa4, 0x40, 0x5c, 0xbe, 0xd9, 0x74, 0x8f, 0x3c, 0xae, 0xea, 0x72, 0xbe,
  0x0b, 0x87, 0x57, 0x3e, 0x94, 0xfc, 0x3f, 0x3e, 0x4d, 0x2d, 0xe7, 0xbe,
  0x75, 0x6d, 0xff, 0xbe, 0x74, 0x21, 0x4d, 0xbf, 0x59, 0xff, 0x96, 0x3d,
  0x4f, 0x42, 0xe1, 0xbd, 0xdd, 0x9d, 0x18, 0xbf, 0x68, 0xc4, 0x0b, 0x3e,
  0x6c, 0x79, 0x98, 0x3e, 0x54, 0x82, 0xd2, 0xbd, 0x4d, 0xbe, 0x98, 0x3e,
  0x7c, 0xbb, 0x89, 0x3d, 0x4e, 0xb9, 0x06, 0xbe, 0x2c, 0x58, 0xd4, 0xbe,
  0xf9, 0x4f, 0xa9, 0xbd, 0x38, 0xb7, 0x59, 0x3e, 0xae, 0x16, 0xc6, 0xbe,
  0x3c, 0x93, 0x90, 0xbd, 0x3c, 0xe8, 0xff, 0xbe, 0xe0, 0x3b, 0x81, 0x3e,
  0x78, 0x9e, 0x13, 0xbf, 0x98, 0x39, 0x8a, 0x3e, 0xf1, 0x62, 0x55, 0xbf,
  0x58, 0x41, 0xad, 0xbe, 0x01, 0x88, 0xb4, 0x3d, 0x4c, 0x09, 0x55, 0x3e,
  0x6b, 0x26, 0xff, 0xbd, 0x3f, 0x95, 0x8f, 0xbe, 0x86, 0x76, 0x7b, 0x3d,
  0xfe, 0xcc, 0x77, 0x3e, 0x1f, 0xd8, 0xa2, 0xbe, 0x79, 0x47, 0xee, 0xbe,
  0x85, 0xc6, 0x10, 0xbd, 0xb0, 0xe4, 0x8f, 0x3d, 0x52, 0x27, 0x08, 0xbe,
  0xe0, 0xb4, 0xb3, 0xbe, 0x76, 0xae, 0x84, 0xbe, 0x9e, 0x64, 0x71, 0xbb,
  0xf1, 0x1e, 0x14, 0x3e, 0xf4, 0x0b, 0x48, 0xbf, 0xfe, 0xe1, 0xa7, 0xbf,
  0x08, 0x16, 0x8c, 0x3d, 0x91, 0x21, 0x0d, 0xbe, 0x4c, 0xe5, 0x0a, 0xbc,
  0x80, 0x04, 0xaf, 0xbc, 0x05, 0xae, 0x43, 0x3e, 0x56, 0x99, 0x6b, 0xbe,
  0xe7, 0x20, 0x53, 0xbd, 0x38, 0xa2, 0x7e, 0x3d, 0x15, 0x8d, 0x17, 0x3e,
  0x2d, 0x08, 0x26, 0xbd, 0xd9, 0x37, 0x53, 0x3e, 0x77, 0x5d, 0xeb, 0x3d,
  0xfe, 0x74, 0xa2, 0xbe, 0x28, 0xc6, 0xe5, 0xbe, 0xed, 0xad, 0xdf, 0xbd,
  0x43, 0x74, 0xc5, 0xbd, 0xdd, 0x8d, 0xa5, 0xbd, 0xac, 0xb2, 0x18, 0x3d,
  0x33, 0x72, 0xa7, 0x3e, 0x98, 0x44, 0x28, 0x3e, 0xbe, 0x11, 0x55, 0x3d,
  0xd2, 0xfa, 0x58, 0x3e, 0xe1, 0xb1, 0x83, 0x3e, 0xc8, 0xcb, 0x68, 0x3e,
  0x8b, 0x37, 0xb0, 0x3d, 0x72, 0x01, 0x30, 0xbf, 0x5b, 0xa5, 0x79, 0xbe,
  0xb1, 0x67, 0xff, 0x3d, 0xc5, 0x30, 0x13, 0xbf, 0x32, 0xe4, 0x1e, 0xbe,
  0x8c, 0x7a, 0xc4, 0xbc, 0x61, 0x53, 0xbc, 0xbe, 0x08, 0x5b, 0xef, 0xbc,
  0x2a, 0x2f, 0x42, 0xbf, 0x56, 0x45, 0x90, 0xbf, 0x25, 0xb1, 0xd1, 0xbd,
  0xb9, 0x0f, 0x24, 0x3e, 0x8f, 0x10, 0x94, 0xbf, 0x53, 0xb2, 0x40, 0xbf,
  0x56, 0xcb, 0xdc, 0xbe, 0x23, 0xe3, 0x63, 0x3c, 0xb3, 0xd1, 0x5a, 0xbe,
  0x2a, 0x71, 0xfc, 0xbe, 0x7a, 0xef, 0x59, 0x3d, 0x6f, 0x90, 0x21, 0x3e,
  0x1c, 0xd2, 0xe7, 0xbd, 0x55, 0xea, 0xfa, 0xbe, 0x93, 0xc6, 0x0b, 0xbf,
  0x31, 0x14, 0x70, 0x3e, 0xb1, 0x6b, 0x37, 0xbf, 0x5b, 0x1f, 0x06, 0xbf,
  0xce, 0x48, 0x89, 0xbf, 0x10, 0x6d, 0x13, 0xbe, 0xef, 0x22, 0x9b, 0x3e,
  0x2d, 0x3d, 0xf8, 0x3d, 0x9a, 0xb6, 0x95, 0xbf, 0x0d, 0x1d, 0xea, 0x3d,
  0xc7, 0x91, 0x70, 0x3e, 0xcf, 0xc1, 0x1b, 0xbf, 0x75, 0x95, 0x70, 0x3e,
  0xb1, 0x81, 0x70, 0xbe, 0x34, 0xd8, 0x92, 0xbf, 0x29, 0x5f, 0x1e, 0xbe,
  0x2b, 0x96, 0x3a, 0x3e, 0xb7, 0x65, 0xa8, 0x3d, 0xab, 0xbc, 0x00, 0xbf,
  0x37, 0xf6, 0x9e, 0x3d, 0xee, 0xe5, 0x22, 0x3e, 0x18, 0x5c, 0x5e, 0x3d,
  0xce, 0xeb, 0x98, 0xbd, 0xb1, 0x18, 0x74, 0x3b, 0x80, 0xab, 0x9a, 0x3e,
  0x8c, 0x42, 0x94, 0xbd, 0xbe, 0xd6, 0xd7, 0x3a, 0xd8, 0xed, 0xcf, 0x3d,
  0x98, 0x83, 0x17, 0x3d, 0x04, 0x60, 0x03, 0xbf, 0xc6, 0x3e, 0x24, 0xbf,
  0x7b, 0xf8, 0x4a, 0xbd, 0xf5, 0x6c, 0xda, 0xbd, 0xbc, 0xb2, 0xa3, 0x3d,
  0x73, 0xcc, 0xe5, 0xbe, 0x48, 0x0d, 0x1a, 0x3e, 0x1e, 0xe7, 0xce, 0xbe,
  0xb2, 0x89, 0x39, 0xbd, 0x1e, 0xee, 0x4c, 0xbf, 0x9f, 0x9d, 0xc7, 0x3d,
  0x76, 0x80, 0x8a, 0x3e, 0x45, 0x13, 0x10, 0x3d, 0xca, 0x2d, 0x81, 0xbe,
  0xd3, 0x11, 0x22, 0xbf, 0x6b, 0x34, 0x0f, 0xbf, 0x6e, 0x3b, 0xfa, 0xbe,
  0x70, 0x74, 0x97, 0xbf, 0xea, 0xd8, 0x47, 0x3f, 0xa8, 0xb0, 0x3d, 0x3e,
  0xd5, 0x76, 0xfc, 0x3e, 0xa5, 0x8d, 0x8f, 0xbd, 0x13, 0xb4, 0x15, 0xbe,
  0xae, 0x70, 0xbf, 0xbb, 0x62, 0x94, 0xc4, 0xbd, 0xd8, 0x59, 0xbc, 0xbd,
  0x6d, 0xc2, 0x57, 0xbe, 0xce, 0xd7, 0xa5, 0x3c, 0x4b, 0xc1, 0xec, 0x3d,
  0xfa, 0x83, 0x8e, 0xbe, 0x57, 0xf3, 0x64, 0xbe, 0x37, 0x73, 0x8a, 0xbd,
  0xc0, 0xc0, 0xbc, 0x3c, 0x97, 0x80, 0xc0, 0xbe, 0x30, 0xc2, 0x01, 0xbf,
  0xe9, 0xba, 0xb0, 0xbe, 0xcd, 0x2a, 0x12, 0xbd, 0x2e, 0xc4, 0x22, 0xbe,
  0xf8, 0x38, 0x0a, 0xbf, 0x7d, 0x7f, 0x82, 0x3d, 0xf9, 0x85, 0xf7, 0xbd,
  0x32, 0xe6, 0x87, 0xbe, 0xcf, 0x63, 0x6e, 0xbc, 0x10, 0x3c, 0xcf, 0xbe,
  0x1b, 0x24, 0xa3, 0xbd, 0x5b, 0xa6, 0xa0, 0x3e, 0x3a, 0x0e, 0x16, 0xbf,
  0xad, 0x6f, 0x1d, 0x3e, 0xeb, 0x44, 0x74, 0xbf, 0x70, 0xca, 0xd8, 0xbe,
  0x69, 0x49, 0xa2, 0xbc, 0x39, 0x56, 0xfa, 0x3d, 0x9f, 0x5f, 0x55, 0x3e,
  0x34, 0x22, 0x36, 0x3e, 0xd4, 0xe8, 0x28, 0xbd, 0x58, 0x2f, 0x99, 0x3d,
  0x38, 0x60, 0xc2, 0xbb, 0xce, 0xf0, 0x22, 0xbf, 0x4c, 0xa6, 0x4f, 0xbe,
  0xbd, 0xca, 0xfc, 0xbc, 0x40, 0xfa, 0x2f, 0xbd, 0xa7, 0xe7, 0x8f, 0x3d,
  0xca, 0x55, 0x20, 0x3e, 0xdc, 0xcd, 0x23, 0x3d, 0xae, 0x16, 0x9b, 0x3e,
  0x05, 0xd5, 0x23, 0xbf, 0x28, 0x70, 0x68, 0x3d, 0xdb, 0x06, 0x80, 0x3d,
  0x8d, 0x97, 0x32, 0xbd, 0xb2, 0x39, 0xb6, 0xbe, 0x1c, 0x6e, 0xd1, 0xbd,
  0x8c, 0xa5, 0xaf, 0x3e, 0x63, 0x12, 0x28, 0x3d, 0xb7, 0xdf, 0x77, 0x3d,
  0xb3, 0x45, 0x89, 0x3e, 0xe3, 0x1d, 0xa3, 0x3e, 0x78, 0xe1, 0x0a, 0x3f,
  0x8d, 0x58, 0x7a, 0xbd, 0xcf, 0xff, 0x84, 0xbf, 0xd9, 0xec, 0x96, 0xbe,
  0x16, 0x13, 0xe8, 0xbe, 0x66, 0x5b, 0x98, 0x3d, 0xfc, 0x0e, 0xa0, 0xbe,
  0xea, 0xdb, 0xc5, 0x3b, 0x36, 0x8a, 0xc2, 0xbe, 0x09, 0xd5, 0x93, 0x3d,
  0xde, 0x6c, 0x7d, 0xbc, 0xaa, 0xe7, 0x71, 0x3e, 0x37, 0x59, 0xf6, 0x3c,
  0x94, 0x5f, 0x39, 0xbe, 0x5c, 0x1e, 0xaa, 0xbd, 0x7c, 0x61, 0xba, 0xbe,
  0x34, 0x3b, 0x93, 0x3e, 0xec, 0x9f, 0x2a, 0x3d, 0xf1, 0xab, 0x4a, 0x3e,
  0xa9, 0x23, 0x62, 0xbd, 0x4b, 0xdf, 0x59, 0xbf, 0x75, 0x42, 0x05, 0xbf,
  0x5f, 0xe3, 0xe1, 0x3d, 0xea, 0x62, 0x81, 0xbe, 0x11, 0x39, 0x94, 0xbe,
  0x20, 0x2b, 0x37, 0xbd, 0xe6, 0xf6, 0xe7, 0x3d, 0xed, 0x38, 0x3a, 0xbd,
  0x2f, 0xe8, 0xbf, 0xbd, 0x60, 0x68, 0x32, 0xbf, 0xf1, 0x59, 0x20, 0xbe,
  0xac, 0xb0, 0x8d, 0xbe, 0xd3, 0x33, 0xf3, 0xbf, 0x5c, 0x77, 0x7e, 0xbc,
  0x6a, 0x8d, 0xa9, 0xbe, 0x6a, 0x0f, 0x4b, 0xbd, 0xfc, 0x6e, 0x9d, 0x3e,
  0xdd, 0x88, 0x76, 0xbe, 0x53, 0xf4, 0x33, 0x3e, 0x6d, 0x68, 0xd7, 0x3a,
  0xb0, 0x87, 0x60, 0xbf, 0x53, 0xc0, 0xa0, 0x3e, 0xce, 0x63, 0x61, 0x3e,
  0xdf, 0xbd, 0x05, 0xba, 0xed, 0xcb, 0x81, 0xbf, 0x75, 0x9b, 0x20, 0x3f,
  0x7e, 0xbf, 0x89, 0x3e, 0xe0, 0x8b, 0x39, 0xbf, 0x5e, 0x2a, 0xd2, 0xbe,
  0x71, 0x1a, 0x14, 0x3e, 0xe9, 0xb4, 0x12, 0x3e, 0xd1, 0x4e, 0x54, 0x3c,
  0x8a, 0xe9, 0x05, 0xbf, 0xf7, 0x0c, 0xf3, 0xbc, 0x69, 0xbd, 0xc9, 0xbc,
  0x81, 0xbb, 0x36, 0xbf, 0xc4, 0xd3, 0xa0, 0xbe, 0x13, 0x9a, 0x8b, 0xbe,
  0xdc, 0xc2, 0x39, 0xbb, 0xd8, 0x77, 0x0e, 0x3e, 0x78, 0x18, 0x36, 0xbe,
  0x9a, 0x6e, 0x1b, 0x3e, 0x65, 0xfb, 0x60, 0xbf, 0x30, 0xd6, 0x09, 0x3d,
  0xcb, 0x89, 0xbe, 0xbe, 0xb4, 0x9c, 0xb1, 0x3d, 0x90, 0x2c, 0x64, 0xbe,
  0x50, 0xa3, 0xd7, 0xbe, 0xad, 0x00, 0x3e, 0xbf, 0x0f, 0x65, 0x24, 0x3e,
  0x67, 0x61, 0x98, 0x3d, 0x3b, 0xcd, 0x66, 0x3d, 0xf8, 0xa5, 0x2e, 0x3e,
  0x99, 0x31, 0x61, 0x3b, 0xde, 0x51, 0x30, 0xbd, 0x1b, 0x96, 0x06, 0xbf,
  0x65, 0x95, 0x95, 0x3e, 0x3c, 0x74, 0x7d, 0xbe, 0x07, 0x4a, 0x13, 0xbf,
  0x45, 0x3c, 0x9f, 0xbd, 0xc1, 0x7e, 0x05, 0x3e, 0x9f, 0xda, 0x5c, 0xbd,
  0x64, 0x8a, 0xd8, 0x3e, 0x7e, 0x09, 0xc9, 0xbe, 0xe8, 0x8c, 0x17, 0xbe,
  0xf9, 0x0f, 0x63, 0x3d, 0x94, 0x46, 0xa0, 0xbe, 0x04, 0x5b, 0xd1, 0xbe,
  0xe2, 0x43, 0xa4, 0x3e, 0x18, 0x42, 0x05, 0x3e, 0x6b, 0x39, 0xa7, 0x3d,
  0xf9, 0xa5, 0xde, 0x3d, 0xf5, 0xd2, 0xa1, 0xbe, 0x69, 0x14, 0x59, 0x3d,
  0x83, 0x85, 0x9d, 0x3e, 0xa2, 0xc5, 0xad, 0x3c, 0xe8, 0xab, 0x15, 0x3e,
  0xb3, 0x9b, 0x9e, 0xbe, 0xde, 0x3c, 0x8a, 0x3c, 0x79, 0x26, 0x1e, 0xbf,
  0xa5, 0xf8, 0x7a, 0x3f, 0xe9, 0xf0, 0x48, 0x3d, 0x05, 0x24, 0x4f, 0xbd,
  0x5e, 0x68, 0x78, 0x3d, 0x8c, 0xcb, 0x29, 0xbc, 0x52, 0xc6, 0x20, 0xbd,
  0x20, 0x09, 0xca, 0xbe, 0x00, 0xcd, 0x9b, 0xbd, 0x74, 0x94, 0x3b, 0x3d,
  0xcc, 0x97, 0x9c, 0x3f, 0xf3, 0xc4, 0x97, 0xbd, 0x4d, 0x88, 0xa4, 0x3e,
  0xcc, 0x17, 0x06, 0xbe, 0xfb, 0x34, 0x9f, 0xbe, 0x8c, 0xb9, 0xd2, 0xbd,
  0x07, 0x30, 0x00, 0x3e, 0xa1, 0xfb, 0x1d, 0xbf, 0x1f, 0xc6, 0x21, 0x3d,
  0x5e, 0xb9, 0x01, 0x3d, 0xc2, 0x1b, 0xdf, 0xbd, 0x29, 0x11, 0xf3, 0xbd,
  0x31, 0x7e, 0x8f, 0xbd, 0x1d, 0x65, 0x80, 0xbe, 0x33, 0xff, 0xc7, 0x3d,
  0xe6, 0xa9, 0xc1, 0xbc, 0x6e, 0x4d, 0x68, 0xbd, 0xdd, 0x25, 0x61, 0x3e,
  0x83, 0x62, 0x4e, 0xbd, 0xe9, 0x3a, 0x8c, 0x3e, 0x68, 0xe5, 0x6b, 0x3f,
  0x0a, 0xa9, 0x96, 0xbe, 0x20, 0xe9, 0x96, 0x3d, 0x85, 0x5e, 0x5e, 0xbc,
  0xd4, 0x07, 0x69, 0x3e, 0x8b, 0x6c, 0x83, 0x3e, 0x7c, 0x98, 0x1e, 0x3e,
  0xef, 0x6a, 0x22, 0xbf, 0xab, 0x32, 0xcb, 0xbe, 0x89, 0x95, 0x02, 0x3e,
  0xb8, 0x44, 0x95, 0x3d, 0x9b, 0x70, 0x8e, 0x3e, 0xeb, 0x11, 0xb9, 0xbe,
  0x7b, 0x6c, 0x04, 0xbc, 0xd0, 0x3f, 0x43, 0xbe, 0x91, 0x3c, 0x0a, 0xbc,
  0x33, 0x5a, 0x74, 0x3d, 0xfd, 0x04, 0xa5, 0xbd, 0xd6, 0x3c, 0x4f, 0x3d,
  0x80, 0x96, 0x3a, 0xbf, 0x9c, 0x46, 0xf7, 0xbe, 0x75, 0xb2, 0x9f, 0xbd,
  0x0a, 0x73, 0x14, 0x3e, 0x59, 0xa8, 0xc6, 0xbe, 0x1a, 0x49, 0x4a, 0x3e,
  0x4d, 0x4b, 0x37, 0xbc, 0xe7, 0x68, 0x62, 0x3c, 0x75, 0xcb, 0x73, 0x3d,
  0x88, 0xd4, 0xc8, 0xbe, 0xe8, 0xe7, 0xeb, 0xbd, 0xd1, 0x9d, 0x92, 0xbe,
  0x51, 0xf3, 0xb6, 0xbf, 0xb4, 0x2c, 0xdd, 0xbe, 0x78, 0xa9, 0x1a, 0xbf,
  0x28, 0x55, 0x84, 0x3d, 0xeb, 0xaa, 0x20, 0x3d, 0x3d, 0xf4, 0xa6, 0xbd,
  0x39, 0x22, 0x92, 0x3c, 0xea, 0x49, 0x36, 0xbe, 0xfc, 0xad, 0x04, 0xbf,
  0x33, 0x11, 0x1c, 0xbe, 0x62, 0xf8, 0x59, 0x3e, 0x0c, 0x01, 0x0b, 0x3e,
  0x00, 0x2c, 0x89, 0xbf, 0xb6, 0xdd, 0x20, 0x3f, 0xfa, 0x33, 0x55, 0x3e,
  0xd7, 0x36, 0x32, 0xbf, 0xdb, 0x11, 0x88, 0xbe, 0x24, 0x52, 0x32, 0x3e,
  0x77, 0xd5, 0x52, 0x3d, 0x01, 0xc7, 0x04, 0x3b, 0x0d, 0x1b, 0xb8, 0xbc,
  0x62, 0xb7, 0xcc, 0xbe, 0x6c, 0x0f, 0xd4, 0xbd, 0x42, 0x51, 0xbe, 0xbe,
  0xd0, 0x51, 0xdc, 0xbc, 0x42, 0x54, 0xfb, 0xbd, 0x2e, 0xc6, 0x14, 0xbe,
  0xe9, 0x94, 0x35, 0x3e, 0x87, 0xdb, 0x26, 0x3d, 0xa7, 0x5f, 0x0e, 0x3e,
  0x3c, 0x99, 0x38, 0xbf, 0x6d, 0x15, 0x7b, 0x3e, 0xdc, 0xa4, 0x07, 0x3e,
  0xc2, 0x50, 0xb2, 0x3e, 0xae, 0xb6, 0x45, 0xbe, 0x0e, 0xd8, 0xe5, 0xbd,
  0xc5, 0x41, 0x61, 0xbe, 0x5a, 0x15, 0x03, 0x3e, 0xdc, 0xdf, 0x6a, 0xbe,
  0x60, 0xe8, 0x25, 0xbf, 0x32, 0x69, 0x64, 0xbe, 0xbb, 0x8f, 0x8f, 0xbe,
  0x35, 0xbd, 0x8f, 0xbe, 0x5b, 0x82, 0xef, 0x3d, 0xfd, 0xb9, 0x59, 0xbe,
  0x58, 0x23, 0x74, 0xbf, 0x3b, 0x9f, 0xaa, 0xbe, 0x1e, 0xfe, 0xd4, 0xbd,
  0xda, 0xe8, 0x1f, 0xbf, 0x4b, 0x57, 0xbc, 0xbe, 0xc9, 0x50, 0x6c, 0xbf,
  0x22, 0x9c, 0xa0, 0x3c, 0x37, 0x19, 0x0a, 0x3e, 0x97, 0xc2, 0x87, 0xbe,
  0xc2, 0xa9, 0x98, 0xbe, 0xd2, 0x04, 0x01, 0xbf, 0xf1, 0x91, 0x89, 0x3b,
  0x1c, 0xb5, 0x88, 0x3d, 0xcf, 0x3f, 0x1b, 0xbf, 0xeb, 0x67, 0x82, 0xbf,
  0x72, 0xfe, 0x0c, 0xbf, 0xa1, 0x85, 0x04, 0xbe, 0x5a, 0x55, 0xf8, 0x3d,
  0x72, 0xc3, 0x1a, 0xbc, 0xf8, 0x0d, 0x4a, 0x3e, 0xcc, 0x16, 0x78, 0xbe,
  0x4f, 0xed, 0x0d, 0xbe, 0xbf, 0x00, 0xa3, 0x3d, 0x47, 0xed, 0x9a, 0xbe,
  0x85, 0x12, 0xd3, 0xbc, 0x93, 0x93, 0x32, 0x3c, 0xd4, 0x50, 0xaf, 0x3d,
  0x2c, 0x29, 0xda, 0x3d, 0xf9, 0x57, 0xb3, 0xbe, 0x3a, 0xd2, 0x18, 0xbf,
  0x63, 0xd4, 0x98, 0x3d, 0xa6, 0x61, 0x15, 0x3e, 0xf8, 0x17, 0xa6, 0xbd,
  0xbf, 0x21, 0x0a, 0xbe, 0x1f, 0x85, 0x87, 0x3d, 0x13, 0xf3, 0xac, 0x3d,
  0xe5, 0x90, 0xb7, 0x3c, 0x5b, 0xb5, 0x47, 0x3b, 0xdd, 0x70, 0x49, 0xbf,
  0x1d, 0x9e, 0x51, 0xbe, 0x4e, 0xf7, 0x9d, 0xbe, 0xcc, 0x78, 0x5a, 0xbd,
  0xaa, 0xa0, 0xf7, 0xbd, 0x97, 0x3c, 0x04, 0x3c, 0x15, 0xaf, 0x56, 0x3c,
  0x96, 0xf8, 0x79, 0xbd, 0x6f, 0x31, 0x81, 0xbe, 0xf0, 0xa8, 0x89, 0xbd,
  0xbc, 0xca, 0xe0, 0xbe, 0x6e, 0xc1, 0x01, 0x3e, 0xaa, 0x59, 0xe9, 0xbe,
  0xb9, 0x74, 0x9a, 0xbb, 0x07, 0x20, 0xe7, 0xbe, 0xef, 0xb3, 0x2d, 0xbe,
  0x09, 0xbd, 0x6c, 0xbe, 0xd0, 0x25, 0xc3, 0xbe, 0x35, 0xf6, 0x86, 0xbf,
  0x55, 0xc5, 0xc4, 0x3e, 0x1d, 0xfb, 0x47, 0x3e, 0xe3, 0xe6, 0xfc, 0x3d,
  0x69, 0x1d, 0xda, 0x3d, 0x38, 0x60, 0x65, 0xbe, 0x14, 0x78, 0xd5, 0xbb,
  0x2c, 0x7f, 0x7a, 0x3d, 0xac, 0xa6, 0x1b, 0xbe, 0xe1, 0x9d, 0x3e, 0xbe,
  0x8a, 0x6e, 0x50, 0xbe, 0x86, 0xaf, 0x27, 0x3f, 0x9b, 0x6e, 0x24, 0xbf,
  0x71, 0x56, 0xe2, 0xbb, 0x9a, 0x44, 0xd0, 0xbe, 0xc7, 0xa5, 0x81, 0xbc,
  0x48, 0x3d, 0x3b, 0xbf, 0x71, 0x64, 0x7c, 0x3e, 0x39, 0x29, 0x20, 0xbf,
  0xec, 0xdf, 0x48, 0x3d, 0x17, 0xf4, 0xa6, 0x3e, 0xbd, 0x29, 0x13, 0xbe,
  0xb0, 0x5c, 0x42, 0x3e, 0xb0, 0x02, 0x69, 0x3e, 0xfe, 0xe0, 0x85, 0xbe,
  0x75, 0xd5, 0xbb, 0xbe, 0x1d, 0xd5, 0x93, 0xbd, 0xfc, 0xd9, 0x87, 0xbd,
  0x5f, 0x12, 0x21, 0x3b, 0x49, 0xc0, 0xdd, 0xbe, 0x8e, 0x98, 0x05, 0xbe,
  0x99, 0x75, 0x38, 0x3f, 0xd3, 0x84, 0x60, 0x3e, 0x54, 0xaa, 0x81, 0xbf,
  0xa6, 0x68, 0x4f, 0xbf, 0x1b, 0xdf, 0x8f, 0x3d, 0x4d, 0x0f, 0x0d, 0xbe,
  0x72, 0x3c, 0xbb, 0x3d, 0x16, 0xd7, 0x41, 0x3e, 0x98, 0x0f, 0xce, 0x3d,
  0x39, 0xe3, 0x05, 0x3f, 0xfd, 0x4c, 0x18, 0x3e, 0xb2, 0x86, 0x27, 0x3e,
  0x0d, 0xec, 0x97, 0xbc, 0x56, 0x2b, 0x25, 0xbc, 0xea, 0x5a, 0x31, 0x3e,
  0xfb, 0x5e, 0xa4, 0x3c, 0x39, 0xc5, 0xa6, 0xbe, 0x91, 0xca, 0xf7, 0xbe,
  0xd3, 0xd0, 0x2d, 0xbe, 0x9c, 0x01, 0xde, 0x3d, 0x4c, 0x3e, 0x2b, 0x3e,
  0x4b, 0x6e, 0xea, 0xbe, 0x64, 0xc4, 0xca, 0x3e, 0x84, 0x35, 0xc6, 0xbe,
  0x0b, 0x42, 0x18, 0xbd, 0x7e, 0xbb, 0xaf, 0x3d, 0xf8, 0x08, 0x9a, 0x3d,
  0xea, 0x3f, 0x33, 0x3e, 0xf6, 0x6b, 0x10, 0xbc, 0x53, 0x9c, 0xa5, 0x3d,
  0x8d, 0x07, 0x1a, 0xbf, 0xf1, 0x57, 0xc8, 0x3e, 0x09, 0x4a, 0x18, 0xbd,
  0x62, 0x30, 0xb1, 0xbe, 0x13, 0x65, 0xcc, 0x3d, 0xb2, 0x3c, 0x04, 0x3e,
  0xc5, 0xc0, 0x3b, 0x3e, 0x14, 0x28, 0x47, 0xbf, 0x64, 0xfb, 0xc0, 0xbf,
  0x59, 0xc2, 0x97, 0xbc, 0x5e, 0xc3, 0x61, 0x3e, 0x81, 0x57, 0x28, 0xbf,
  0x1c, 0x43, 0x75, 0xbf, 0x6f, 0xd6, 0xaf, 0xbe, 0x09, 0x39, 0x2f, 0x39,
  0x76, 0xc2, 0xaf, 0xbe, 0x2c, 0x99, 0x06, 0xbf, 0x25, 0xff, 0x11, 0x3e,
  0x09, 0x76, 0xa5, 0xbc, 0xbf, 0x06, 0x53, 0xbe, 0x2c, 0x3b, 0x09, 0xbf,
  0xd3, 0x1f, 0x05, 0xbf, 0xb7, 0x9c, 0x1f, 0x3e, 0x72, 0xab, 0x2e, 0xbf,
  0x6f, 0x02, 0xaf, 0xbe, 0x2e, 0x16, 0x36, 0xbf, 0x7c, 0x13, 0x85, 0xbe,
  0x15, 0x58, 0xb2, 0x3d, 0xd0, 0x89, 0xc8, 0x3c, 0xe9, 0x92, 0x74, 0xbf,
  0x2b, 0x78, 0x22, 0x3d, 0x1c, 0x28, 0x52, 0x3e, 0xad, 0xe0, 0x32, 0xbe,
  0xb0, 0x00, 0xae, 0x3e, 0xf2, 0x65, 0xbb, 0xbe, 0xfe, 0x0d, 0xb1, 0xbf,
  0x65, 0xa5, 0x21, 0x3e, 0x97, 0x38, 0x82, 0x3d, 0xe3, 0x87, 0x08, 0x3e,
  0x32, 0xeb, 0x97, 0xbe, 0xa8, 0xe2, 0x80, 0xbd, 0x6b, 0xd8, 0xa4, 0x3b,
  0xb5, 0x1d, 0xf1, 0xbd, 0xc1, 0x61, 0xd1, 0x3e, 0xb3, 0x9a, 0x8a, 0x3c,
  0x23, 0xa6, 0xb5, 0x3d, 0x26, 0x81, 0x2e, 0x3e, 0xa3, 0xce, 0xda, 0x3d,
  0x53, 0xf4, 0x0b, 0x3e, 0x4c, 0xa5, 0xf4, 0x3d, 0x6d, 0x68, 0xab, 0xbe,
  0x31, 0x92, 0x53, 0xbf, 0xc2, 0x19, 0x75, 0x3e, 0x2e, 0x8c, 0x6d, 0xbd,
  0xb9, 0x0e, 0xc9, 0x3c, 0x8c, 0x2f, 0x10, 0xbf, 0x0a, 0x58, 0x6d, 0x3e,
  0xc3, 0x2f, 0x4e, 0xbe, 0x24, 0x62, 0x1d, 0xbd, 0x0f, 0x86, 0x21, 0xbf,
  0xe6, 0x4c, 0x67, 0x3e, 0x56, 0x23, 0xec, 0x3e, 0x4d, 0xd6, 0xba, 0xbd,
  0xe6, 0xeb, 0x80, 0xbe, 0xaa, 0xe0, 0x76, 0xbf, 0xad, 0x93, 0x04, 0xbf,
  0x47, 0x80, 0x14, 0xbe, 0x6a, 0x54, 0x26, 0xbf, 0x57, 0xf4, 0xfe, 0x3e,
  0x10, 0x12, 0x59, 0x3c, 0xbf, 0x43, 0x77, 0xbd, 0x8c, 0xd6, 0x31, 0xbe,
  0xfc, 0x38, 0x2a, 0xbe, 0x5d, 0xee, 0xf7, 0xba, 0x99, 0xde, 0x8f, 0xbe,
  0x59, 0xc0, 0x8a, 0x3e, 0x79, 0xa6, 0x19, 0xbe, 0x39, 0x31, 0xfe, 0x3b,
  0x06, 0x77, 0x2d, 0xbe, 0x7f, 0x0d, 0xaa, 0x3c, 0x77, 0xa9, 0x80, 0x3a,
  0x0b, 0xc8, 0xda, 0xbd, 0x82, 0xfb, 0x55, 0xbf, 0xa0, 0xc2, 0xf1, 0x3d,
  0xf0, 0xce, 0x41, 0x3d, 0xde, 0x1e, 0xbc, 0x3d, 0xe4, 0x0b, 0xbf, 0x3e,
  0x65, 0x75, 0xec, 0x3d, 0x8e, 0xf2, 0x39, 0xbe, 0x24, 0xcf, 0x6f, 0xbe,
  0xe2, 0xff, 0xcc, 0xbd, 0xe4, 0x8d, 0x44, 0xbe, 0xf6, 0x96, 0x9c, 0x3c,
  0x8b, 0xb1, 0x07, 0x3d, 0xa8, 0xad, 0xfe, 0xbe, 0x7b, 0x04, 0xe0, 0xbd,
  0xb0, 0xff, 0x40, 0xbe, 0x96, 0x9a, 0x58, 0xbd, 0x99, 0xba, 0x82, 0x3e,
  0x01, 0xef, 0x38, 0x3c, 0x09, 0x10, 0xaf, 0xbe, 0x32, 0xd9, 0x24, 0xbd,
  0xad, 0x2b, 0x2e, 0xbe, 0xc1, 0x98, 0xf7, 0xbd, 0x47, 0x9b, 0xbe, 0xbe,
  0x7a, 0xa8, 0x01, 0xbe, 0xaa, 0x7d, 0x99, 0xbe, 0x17, 0xbe, 0xc8, 0x3b,
  0x16, 0x3d, 0xf5, 0xbe, 0xeb, 0x5c, 0x3e, 0x3e, 0xf3, 0x14, 0x27, 0xbf,
  0xf1, 0xbe, 0x0c, 0x3e, 0x1c, 0xbf, 0xd9, 0xbd, 0x50, 0xfb, 0x21, 0xbe,
  0xcd, 0x9d, 0xa8, 0xbd, 0xc8, 0x87, 0x96, 0xbd, 0x9e, 0x7c, 0x00, 0xbf,
  0xc0, 0x52, 0x26, 0x3e, 0xeb, 0x2b, 0x2d, 0xbd, 0xc9, 0x4f, 0xf9, 0xbd,
  0xaf, 0x5c, 0xb7, 0x3c, 0xe7, 0xda, 0x1e, 0xbf, 0x0b, 0x26, 0xba, 0xbd,
  0x73, 0x83, 0x08, 0xbd, 0x00, 0xac, 0x39, 0xbe, 0xb6, 0x0d, 0x05, 0xbf,
  0xc6, 0x34, 0x05, 0x3d, 0x98, 0x6a, 0x1d, 0xbf, 0x5b, 0xb8, 0xa0, 0x3e,
  0x67, 0x71, 0x33, 0xbd, 0x78, 0x53, 0x61, 0xbd, 0x35, 0x72, 0x2b, 0xbe,
  0x0e, 0x65, 0xb5, 0x3e, 0x73, 0xba, 0x5c, 0xbe, 0xa5, 0x1f, 0x94, 0x3e,
  0x46, 0x63, 0x5a, 0x3d, 0xfe, 0xb3, 0x83, 0xbe, 0x3a, 0x23, 0xc0, 0xbd,
  0x2b, 0x58, 0xb6, 0xbd, 0x60, 0x5d, 0x10, 0xbf, 0x0b, 0x37, 0x43, 0x3d,
  0x4c, 0x64, 0xff, 0xbe, 0xf9, 0x52, 0x59, 0x3c, 0x7e, 0x49, 0x5c, 0xbf,
  0x4e, 0x41, 0x43, 0xbe, 0x0e, 0x2a, 0x4b, 0xbf, 0xed, 0xb7, 0xcd, 0x3c,
  0x59, 0x8b, 0x5f, 0xbf, 0xc4, 0xd0, 0xea, 0xbc, 0x4f, 0x31, 0xd4, 0xbe,
  0xa3, 0xa2, 0x84, 0x3d, 0x26, 0xae, 0x3c, 0xbd, 0xc4, 0x46, 0x07, 0xbf,
  0x7b, 0xca, 0x8a, 0xbe, 0x1b, 0x67, 0xad, 0xbd, 0xd3, 0xcc, 0xe2, 0xbe,
  0x78, 0x69, 0x13, 0xbf, 0x2f, 0xce, 0x92, 0x3c, 0x7f, 0x65, 0x4d, 0x3e,
  0x63, 0xd9, 0x1a, 0x3d, 0x01, 0xa1, 0x5b, 0xbf, 0x8f, 0x48, 0x5a, 0xbf,
  0x95, 0x79, 0x03, 0x3f, 0x23, 0xe4, 0xa2, 0x3d, 0xaf, 0xe2, 0x93, 0xbf,
  0xb0, 0x8a, 0x98, 0xbf, 0x4e, 0xb7, 0xba, 0x3d, 0xcb, 0x7e, 0x7b, 0xbe,
  0x0c, 0xee, 0x77, 0xbe, 0x21, 0x7e, 0xc9, 0x3d, 0x07, 0x09, 0xc9, 0xbb,
  0xaa, 0x41, 0xd6, 0x3d, 0x36, 0x3c, 0x41, 0x3e, 0xb3, 0xca, 0x4a, 0x3e,
  0x64, 0xe6, 0xd0, 0x3d, 0x8e, 0xfc, 0x4e, 0x3d, 0xef, 0x1f, 0x33, 0x3e,
  0x6d, 0xeb, 0x64, 0x3e, 0xc2, 0x5a, 0x2c, 0x3e, 0xd6, 0xc5, 0x24, 0xbf,
  0x1c, 0x88, 0x59, 0xbe, 0x78, 0xcc, 0xa5, 0xbd, 0x97, 0x6b, 0x36, 0x3e,
  0xe7, 0x4d, 0x16, 0xbe, 0xfa, 0x64, 0xdf, 0xbc, 0xd4, 0xf9, 0xfe, 0xbd,
  0xd3, 0xf6, 0x12, 0x3e, 0x31, 0x0d, 0xc0, 0xbd, 0xdc, 0x21, 0xa6, 0x3e,
  0xe4, 0x76, 0x6b, 0xbe, 0xaf, 0x42, 0xf0, 0x3d, 0x7b, 0xcf, 0xba, 0xbc,
  0x04, 0x3a, 0x28, 0xbe, 0xc9, 0x60, 0x7f, 0x3e, 0xdf, 0x83, 0x67, 0xbe,
  0xab, 0xcc, 0xef, 0xbe, 0x26, 0x75, 0xf3, 0x3d, 0x0f, 0x67, 0x5e, 0xbf,
  0xa6, 0x21, 0x49, 0xbe, 0x36, 0xe5, 0x62, 0xbf, 0x82, 0x1f, 0x9b, 0xbf,
  0xc8, 0xfb, 0x2d, 0x3d, 0x98, 0x53, 0x53, 0xbe, 0x54, 0x99, 0x88, 0xbd,
  0xc9, 0x94, 0xc0, 0xbd, 0x82, 0x3b, 0x3e, 0xbf, 0x7d, 0x5e, 0xee, 0xbd,
  0xad, 0x52, 0x13, 0xbf, 0x26, 0x4b, 0x2b, 0xbf, 0xec, 0xf8, 0x19, 0x3e,
  0xec, 0x33, 0x22, 0x3e, 0xdd, 0x4b, 0xe3, 0xbe, 0x6a, 0xc8, 0x90, 0x3d,
  0x0e, 0x65, 0x04, 0xbe, 0xf9, 0xad, 0x86, 0xbe, 0xd9, 0x36, 0x3f, 0xbe,
  0x0b, 0x31, 0x17, 0xbf, 0xc2, 0x85, 0x8d, 0xbf, 0x5d, 0x3c, 0x0c, 0xbf,
  0xe9, 0x0f, 0xc0, 0x3d, 0x72, 0x8a, 0x63, 0xbc, 0x72, 0x71, 0x3e, 0xbf,
  0x62, 0x60, 0xd3, 0x3d, 0x13, 0x98, 0x5b, 0xbc, 0xc0, 0x4a, 0x45, 0xbe,
  0x0d, 0x06, 0x05, 0x3d, 0xdf, 0x40, 0x64, 0xbe, 0xc0, 0xf4, 0x41, 0xbf,
  0x96, 0x5f, 0x31, 0x3d, 0xf3, 0x46, 0x46, 0xbd, 0x61, 0x8f, 0xf0, 0x3d,
  0xd3, 0xd5, 0xd2, 0xbe, 0xb1, 0xac, 0x08, 0xbf, 0x42, 0xa1, 0xca, 0x3c,
  0x91, 0x73, 0x61, 0x3e, 0xb2, 0x2a, 0x10, 0xbf, 0x72, 0x60, 0x4f, 0xbf,
  0x68, 0x41, 0x09, 0x3e, 0x05, 0x05, 0x99, 0x3d, 0xaa, 0x7c, 0x51, 0x3e,
  0xec, 0x48, 0xa1, 0xbc, 0x8b, 0x41, 0x07, 0xbf, 0x78, 0xca, 0xa5, 0xbe,
  0x49, 0x20, 0x79, 0xbf, 0x37, 0x1e, 0xa9, 0xbd, 0xbc, 0x0b, 0x4f, 0xbd,
  0xa0, 0x63, 0x96, 0x3e, 0xf1, 0x1f, 0x10, 0x3e, 0xdb, 0x28, 0x77, 0x3d,
  0x76, 0x50, 0x29, 0x3e, 0x92, 0x3b, 0xe2, 0xbd, 0x44, 0x57, 0x10, 0xbf,
  0xcf, 0x6f, 0x33, 0xbd, 0xb7, 0xe4, 0xed, 0xbe, 0x14, 0x0d, 0x9e, 0xbe,
  0x98, 0xce, 0x07, 0xbf, 0x26, 0xd0, 0x2d, 0xbd, 0xb6, 0x7d, 0xba, 0xbe,
  0x10, 0xb1, 0x25, 0xbf, 0xe5, 0x5b, 0x8e, 0xbf, 0x00, 0x6f, 0x33, 0x3f,
  0xeb, 0xb7, 0xf6, 0x3e, 0x17, 0x4a, 0x58, 0x3d, 0x76, 0xf8, 0xc0, 0xbe,
  0xcb, 0x7b, 0x3d, 0xbe, 0x75, 0x34, 0x35, 0xbf, 0xd9, 0xae, 0x5b, 0x3e,
  0xa6, 0x01, 0xb2, 0xbc, 0x23, 0x15, 0xb0, 0xbe, 0x01, 0x03, 0xc3, 0xbd,
  0x91, 0x6e, 0xa1, 0x3e, 0xb0, 0xe0, 0x36, 0x3c, 0x05, 0x2a, 0x17, 0xbe,
  0x7f, 0x43, 0xbb, 0xbe, 0xe3, 0xf9, 0xf6, 0xbe, 0x30, 0x67, 0xea, 0xbd,
  0xc8, 0x6f, 0x32, 0xbc, 0x26, 0xfe, 0x27, 0xbc, 0x78, 0x76, 0x92, 0x3e,
  0x76, 0xde, 0xe9, 0xbe, 0x14, 0x4f, 0x20, 0xbe, 0x81, 0xdd, 0x9e, 0x3d,
  0x9d, 0x33, 0x0a, 0xbe, 0x3f, 0x43, 0xfd, 0xbe, 0x94, 0x3f, 0x36, 0x3e,
  0x7f, 0x2b, 0x06, 0xbf, 0xea, 0x27, 0x88, 0xbe, 0x3a, 0x83, 0xab, 0x3c,
  0x7e, 0x76, 0x2d, 0xbe, 0x8d, 0xbd, 0x0c, 0xbe, 0x5f, 0xce, 0x6f, 0x3f,
  0xef, 0xa4, 0x11, 0xbf, 0x2a, 0xd1, 0x45, 0xbe, 0x98, 0x75, 0x0e, 0xbe,
  0xa6, 0x16, 0x1e, 0xbd, 0x38, 0x8d, 0x4e, 0xbd, 0xd1, 0x85, 0x73, 0xbe,
  0x1e, 0x08, 0x69, 0xbf, 0xfe, 0x5a, 0x73, 0xbe, 0x60, 0xd1, 0xe3, 0x3f,
  0xc0, 0x3c, 0xc8, 0xbe, 0x77, 0x9c, 0x98, 0x3e, 0xb3, 0x48, 0x84, 0xbe,
  0xe2, 0x04, 0x26, 0xbe, 0x94, 0x80, 0x8a, 0xbe, 0xcd, 0x4d, 0x3e, 0xbc,
  0x61, 0x46, 0x2e, 0x3e, 0xc3, 0x55, 0x94, 0xbd, 0x7f, 0xf1, 0xda, 0x3d,
  0xf3, 0x85, 0xa3, 0x3d, 0x2e, 0x00, 0xca, 0xbd, 0x6f, 0xff, 0x47, 0x3c,
  0x4d, 0x75, 0xb1, 0x3d, 0x6b, 0x69, 0xff, 0xbd, 0x36, 0xb2, 0x18, 0xbe,
  0xac, 0x1a, 0xc5, 0x3c, 0x0f, 0xce, 0x98, 0x3e, 0xe5, 0x51, 0x96, 0x3d,
  0x1e, 0x71, 0x0f, 0x3b, 0x17, 0xd8, 0x3b, 0x3f, 0x6b, 0x37, 0x6f, 0xbd,
  0xac, 0xfd, 0x05, 0x3e, 0x44, 0x36, 0xb9, 0x3e, 0xb1, 0x5c, 0xd1, 0x3d,
  0x61, 0x29, 0x8f, 0xbe, 0x86, 0x9d, 0x74, 0xbe, 0x92, 0xca, 0x0a, 0x3c,
  0x84, 0x8f, 0x0d, 0xbf, 0x53, 0x7f, 0x86, 0xbb, 0xb8, 0xa1, 0x81, 0x3d,
  0xb4, 0xde, 0x7b, 0x3d, 0x8a, 0xf2, 0x6b, 0xbf, 0x2b, 0xe6, 0x1b, 0xbe,
  0x15, 0xe2, 0x93, 0x3d, 0x6b, 0x35, 0x12, 0xbd, 0xc6, 0x29, 0xa3, 0xbd,
  0x8a, 0x96, 0x40, 0x3e, 0x5a, 0x5f, 0xaf, 0xbb, 0xad, 0x03, 0x5f, 0x3d,
  0xea, 0xf1, 0x1e, 0xbe, 0x9c, 0x14, 0xf3, 0xbd, 0x1c, 0x0b, 0x5d, 0xbe,
  0xb4, 0x09, 0xa6, 0xbf, 0x5c, 0xc1, 0x45, 0xbf, 0x21, 0x9a, 0x8c, 0xbe,
  0x63, 0x18, 0xfc, 0x3d, 0x65, 0x1d, 0x35, 0xbd, 0xa1, 0xf5, 0x02, 0xbf,
  0xdb, 0x59, 0xfd, 0xbe, 0xd7, 0xd5, 0x31, 0xbf, 0xe7, 0xc7, 0xbb, 0x3d,
  0x5a, 0x96, 0xc8, 0xbe, 0xb9, 0x84, 0x88, 0xbf, 0xa2, 0x4f, 0xbc, 0xbc,
  0x52, 0x0f, 0x8d, 0xbe, 0xdd, 0x35, 0x39, 0xbf, 0xf4, 0x05, 0x78, 0x3d,
  0xf8, 0xe7, 0x30, 0xbd, 0x25, 0x5e, 0xec, 0x3d, 0x6d, 0x76, 0xba, 0x3e,
  0x2d, 0xf2, 0x07, 0x3d, 0x86, 0x15, 0x01, 0x3d, 0x41, 0xdd, 0xb0, 0x3e,
  0x16, 0x51, 0xb4, 0xbe, 0x75, 0xd1, 0xd9, 0x3c, 0xaa, 0x7e, 0x6b, 0x3e,
  0xe0, 0x03, 0xb4, 0x3d, 0x54, 0x22, 0xaa, 0x3e, 0x84, 0x4d, 0x80, 0x3d,
  0x7f, 0x8e, 0x3f, 0x3d, 0xf9, 0x4a, 0x26, 0xbf, 0x4d, 0x44, 0x4d, 0xbf,
  0x27, 0x2a, 0x24, 0xbf, 0x3b, 0xcb, 0x49, 0xbf, 0x7f, 0x49, 0x65, 0x3d,
  0xc8, 0xf0, 0x69, 0xbf, 0x2d, 0x36, 0x3f, 0xbf, 0xf8, 0xb2, 0xc7, 0xbe,
  0x33, 0x07, 0x82, 0xbf, 0xfe, 0x34, 0x50, 0x3e, 0x01, 0xec, 0x92, 0xbd,
  0x6f, 0x25, 0x21, 0xbf, 0xc0, 0x7c, 0x01, 0x3e, 0x1a, 0xc3, 0x27, 0xbf,
  0x63, 0x0b, 0xa1, 0xbf, 0x4b, 0x21, 0xc8, 0xbe, 0xa2, 0x7f, 0x3c, 0xbf,
  0x14, 0xb6, 0x5a, 0x3e, 0x37, 0x88, 0xc4, 0x3e, 0x80, 0xa8, 0xec, 0x3e,
  0xee, 0x9c, 0x4a, 0x3e, 0x99, 0x1b, 0x81, 0xbd, 0xb9, 0x31, 0x8c, 0xb9,
  0xa7, 0x63, 0x23, 0xbf, 0x3a, 0xb4, 0x62, 0x3e, 0x27, 0x87, 0x1e, 0xbe,
  0x3d, 0x8d, 0xdf, 0xbe, 0x35, 0xa1, 0xeb, 0xbd, 0xbb, 0x86, 0xa5, 0x3e,
  0xc1, 0x26, 0xfd, 0xbc, 0x45, 0x94, 0x19, 0x3e, 0x42, 0x42, 0xb2, 0xbd,
  0x2b, 0xa3, 0xec, 0x3d, 0x99, 0x29, 0xfe, 0xbd, 0x77, 0x86, 0x01, 0xbf,
  0xd7, 0xb9, 0x98, 0xbd, 0x8a, 0xe1, 0x03, 0xbd, 0xe0, 0x0d, 0x91, 0x3c,
  0x7d, 0xf9, 0x1a, 0x3d, 0x1d, 0xe4, 0x83, 0xbd, 0x71, 0xba, 0xd7, 0xbe,
  0x3a, 0x68, 0xc1, 0xbe, 0xd3, 0xbc, 0x09, 0x3e, 0x65, 0x67, 0x65, 0x3d,
  0x13, 0xb8, 0xd7, 0x3a, 0x63, 0xf4, 0x81, 0x3d, 0x5e, 0x35, 0x8f, 0xbe,
  0x15, 0x24, 0xac, 0xbe, 0x17, 0xbf, 0x62, 0x3f, 0x81, 0xef, 0xc2, 0xbd,
  0x91, 0xe2, 0x4e, 0xbd, 0x78, 0x21, 0x1f, 0xbc, 0x16, 0x41, 0x0c, 0xbd,
  0x03, 0xf2, 0x93, 0x3e, 0xb6, 0x74, 0x7e, 0xbe, 0x75, 0x40, 0x10, 0xbf,
  0x79, 0x49, 0xf5, 0x3c, 0x7f, 0x37, 0x9e, 0x3f, 0xe4, 0x0b, 0x0a, 0xbf,
  0x74, 0x3c, 0x89, 0x3e, 0xcb, 0xa1, 0x3c, 0xbe, 0x68, 0x41, 0xcb, 0xbd,
  0x7b, 0xae, 0x66, 0xbe, 0xcf, 0x39, 0x93, 0x3d, 0xbd, 0x62, 0x48, 0xbe,
  0x69, 0x43, 0x8d, 0x3a, 0x50, 0xaa, 0x82, 0x3c, 0xc4, 0x8b, 0xbb, 0xbd,
  0xf0, 0xa5, 0x25, 0xbe, 0xae, 0x64, 0x3f, 0xbd, 0xfb, 0xa1, 0x7a, 0xbc,
  0xa1, 0x69, 0xd3, 0x3c, 0xa7, 0x87, 0xea, 0xbe, 0x42, 0xc6, 0x73, 0x3d,
  0x5c, 0x81, 0xae, 0x3e, 0xaa, 0xa4, 0xef, 0x3d, 0x0c, 0x8b, 0x6c, 0xbd,
  0xb9, 0xc4, 0xe7, 0x3e, 0x78, 0x39, 0x43, 0xbe, 0x6c, 0x01, 0x37, 0xbd,
  0x9b, 0xb1, 0x5f, 0xbe, 0x06, 0x64, 0x7f, 0xbd, 0x3c, 0x39, 0x8f, 0xbe,
  0x53, 0xe4, 0x03, 0x3e, 0xa8, 0xe4, 0xfb, 0xbe, 0x9d, 0xaa, 0x94, 0xbe,
  0x99, 0xb0, 0x1b, 0x3d, 0x37, 0x9d, 0x51, 0x3e, 0x0a, 0x6e, 0x12, 0xbe,
  0xe1, 0xb3, 0xb3, 0xbd, 0x13, 0x9d, 0x49, 0xbc, 0xb5, 0x66, 0x0d, 0xbd,
  0xbb, 0x71, 0x36, 0x3b, 0xcc, 0xb1, 0xfb, 0x3c, 0x24, 0x94, 0x58, 0xbe,
  0xc2, 0x45, 0x47, 0x3e, 0xa6, 0x59, 0x1b, 0xbe, 0x9a, 0x68, 0x1f, 0xbd,
  0xc5, 0xde, 0xf9, 0x3c, 0x6b, 0x63, 0x86, 0x3d, 0xcc, 0x48, 0x98, 0xbe,
  0xdd, 0xd9, 0xf0, 0x3c, 0x7a, 0x15, 0x7a, 0x3e, 0xda, 0x9b, 0x37, 0xbe,
  0xff, 0xe5, 0x13, 0x3e, 0xc8, 0xa5, 0xbe, 0xbe, 0xc5, 0xde, 0xde, 0x3e,
  0x67, 0x69, 0xfe, 0xbe, 0x4f, 0x40, 0x95, 0xbe, 0x49, 0x8d, 0xe7, 0xbc,
  0x93, 0xcd, 0xa0, 0xbd, 0xe5, 0xdd, 0x67, 0x3e, 0xb0, 0x8d, 0x3c, 0x3b,
  0xe2, 0xe6, 0xba, 0xbe, 0x02, 0xa1, 0x18, 0x3e, 0xda, 0x75, 0x8f, 0x3e,
  0x46, 0x50, 0xa3, 0x3d, 0x8a, 0xaa, 0x4f, 0x3e, 0x87, 0xba, 0x6d, 0x3e,
  0xd0, 0x3a, 0x87, 0x3e, 0x76, 0x22, 0xbc, 0xbe, 0xd4, 0x28, 0x55, 0x3f,
  0x9a, 0xc2, 0x83, 0x3d, 0x27, 0x03, 0x3a, 0x3c, 0x7e, 0xd8, 0xe6, 0x3d,
  0x1d, 0xaa, 0x03, 0x3f, 0xd4, 0x10, 0x03, 0x3e, 0xd4, 0x32, 0xb2, 0x3d,
  0x8c, 0xff, 0x2d, 0xbf, 0x2b, 0x61, 0xd4, 0x3a, 0xdc, 0xd8, 0x26, 0xbe,
  0x50, 0x9e, 0xc6, 0x3d, 0x6b, 0x90, 0x32, 0x3e, 0x65, 0xa9, 0x38, 0xbc,
  0xff, 0x93, 0x25, 0x3e, 0xe8, 0xa7, 0x90, 0x3e, 0x38, 0xd5, 0x79, 0xbe,
  0xfe, 0x1c, 0xb4, 0xbd, 0xda, 0x1f, 0xe8, 0xbe, 0x9a, 0x6d, 0xc5, 0x3e,
  0x44, 0xb4, 0x33, 0xbe, 0xe6, 0xa2, 0x1b, 0x3d, 0x88, 0xd5, 0xf9, 0xbd,
  0x68, 0x0a, 0xc4, 0x3d, 0x45, 0x29, 0xa0, 0x3e, 0xe9, 0xa7, 0x00, 0xbe,
  0x3a, 0xf1, 0xc9, 0xbe, 0x42, 0xe6, 0x36, 0xbc, 0x80, 0xed, 0xa0, 0x3e,
  0xf7, 0x9d, 0xab, 0xbe, 0x18, 0x6d, 0xa4, 0xbf, 0xf1, 0x24, 0x34, 0xbd,
  0x35, 0x2b, 0x78, 0xbd, 0xbc, 0xd0, 0x00, 0xbf, 0xea, 0xe4, 0x8f, 0xbe,
  0xf7, 0x85, 0x0c, 0xbf, 0xbc, 0xeb, 0x4f, 0x3e, 0x83, 0xd2, 0xf4, 0xbe,
  0xc3, 0x7b, 0x43, 0xbe, 0xa2, 0x51, 0xc6, 0xbd, 0x9f, 0xd4, 0xe4, 0x3d,
  0xcd, 0x26, 0x1c, 0x3e, 0x25, 0xd9, 0x55, 0xbe, 0x89, 0x1b, 0xd9, 0xbe,
  0xca, 0x6f, 0xb2, 0xbc, 0x47, 0x3f, 0xe5, 0xbe, 0x15, 0xc2, 0x91, 0x3e,
  0x63, 0x12, 0xef, 0xbe, 0x14, 0x47, 0x38, 0x3d, 0x76, 0xe9, 0x39, 0x3e,
  0xf1, 0x38, 0x92, 0x3c, 0xe4, 0xfd, 0x6c, 0xbd, 0x6e, 0xe0, 0x1d, 0x3d,
  0xc2, 0xe8, 0x94, 0x3d, 0xfd, 0xc3, 0x32, 0xbe, 0x13, 0x6b, 0x18, 0x3e,
  0x8b, 0x67, 0x82, 0x3d, 0xa3, 0x13, 0x60, 0xbd, 0xc4, 0x0a, 0xa3, 0x3d,
  0xfe, 0x6e, 0xaf, 0xbd, 0xe5, 0x3f, 0x97, 0x3d, 0xc4, 0x4d, 0x4f, 0xbe,
  0x03, 0xa8, 0x23, 0xbc, 0x18, 0xe7, 0x24, 0x3c, 0x56, 0x4c, 0xb7, 0x3e,
  0xa2, 0xc2, 0x07, 0x3f, 0x72, 0xc5, 0x82, 0xbd, 0xe6, 0xcf, 0x2f, 0x3d,
  0xe8, 0xf7, 0x1e, 0xbe, 0x09, 0x76, 0xaa, 0x3e, 0x47, 0x0c, 0x83, 0x3e,
  0xfd, 0xb3, 0x04, 0x3e, 0xd9, 0xd5, 0xb0, 0xbd, 0x1b, 0x5a, 0x98, 0xbe,
  0xee, 0x10, 0xde, 0x3d, 0x73, 0x61, 0x80, 0x3d, 0x9b, 0xbf, 0xa4, 0x3d,
  0xb8, 0x06, 0x08, 0xbe, 0x23, 0x86, 0x33, 0x3e, 0x5f, 0xe0, 0xda, 0xbe,
  0x0b, 0x3f, 0x8a, 0xbe, 0xdc, 0x0c, 0xd5, 0xbe, 0x46, 0xcf, 0x21, 0x3e,
  0x1e, 0x92, 0x2d, 0xbe, 0x21, 0x74, 0x31, 0x3e, 0x7b, 0x27, 0x3e, 0x3c,
  0x30, 0x39, 0xa3, 0x3d, 0xc2, 0x2b, 0x2d, 0x3e, 0x89, 0x2d, 0x01, 0xbf,
  0x61, 0xbd, 0x01, 0xbf, 0x84, 0xf7, 0x9f, 0x3d, 0x81, 0xaf, 0x0c, 0xbf,
  0xa5, 0x01, 0x62, 0x3e, 0x00, 0xbe, 0x7a, 0xbd, 0x47, 0x23, 0x8c, 0xbf,
  0x58, 0xc3, 0x20, 0x3e, 0x59, 0xb3, 0x4f, 0xbf, 0x1c, 0x76, 0x0f, 0xbf,
  0x18, 0xba, 0x84, 0x3e, 0x1e, 0x7f, 0xf9, 0xbe, 0xe5, 0xcf, 0x48, 0xbf,
  0x40, 0x89, 0x5b, 0xbf, 0x9b, 0x44, 0x52, 0xbf, 0x76, 0xce, 0x11, 0xbe,
  0x36, 0x05, 0x29, 0x3e, 0x88, 0xb4, 0x82, 0xbf, 0x1c, 0x93, 0x9a, 0xbe,
  0x1c, 0x6b, 0x04, 0xbf, 0x71, 0x85, 0x4b, 0xbc, 0xcc, 0x13, 0x94, 0xbd,
  0xc1, 0xfe, 0x70, 0xbf, 0xdf, 0xa3, 0x6c, 0xbf, 0xaa, 0xcb, 0xa3, 0x3c,
  0xf9, 0xff, 0x3a, 0xbe, 0x72, 0x53, 0xf6, 0x39, 0x3c, 0xcd, 0x02, 0xbd,
  0x4a, 0x11, 0xb2, 0xbd, 0xf3, 0x52, 0xf2, 0xbd, 0xe4, 0xe9, 0x0a, 0xbf,
  0x5f, 0x0d, 0xc7, 0xbe, 0xe3, 0x03, 0x02, 0xbd, 0xc0, 0xa0, 0x79, 0xbd,
  0x78, 0x81, 0x5f, 0x3c, 0x75, 0x92, 0x33, 0xbe, 0x69, 0x85, 0x74, 0x3e,
  0xad, 0xb9, 0x7c, 0xbe, 0xca, 0xa1, 0xce, 0xbe, 0xc4, 0x86, 0x37, 0x3d,
  0x95, 0x6a, 0x69, 0x3e, 0xb7, 0xdd, 0xe3, 0xbd, 0xd8, 0xb2, 0xc4, 0xbc,
  0xa6, 0x06, 0x26, 0x3e, 0x28, 0x96, 0x54, 0x3e, 0x41, 0x64, 0x92, 0x3e,
  0xe3, 0xca, 0x43, 0x3e, 0x44, 0x86, 0x97, 0xbe, 0xca, 0x02, 0x97, 0xbe,
  0x0c, 0x60, 0x07, 0xbf, 0xde, 0xdc, 0xdd, 0xbd, 0xc4, 0xae, 0xd6, 0x3d,
  0xe2, 0x82, 0x27, 0x3e, 0xf5, 0x43, 0xa5, 0xbe, 0xd0, 0xdd, 0x4a, 0xbe,
  0xfd, 0x4c, 0x00, 0x3c, 0x54, 0x16, 0xa7, 0xbd, 0x94, 0x79, 0x9e, 0xbe,
  0x8b, 0xb2, 0x86, 0x3c, 0x84, 0xa0, 0xaf, 0xbd, 0xee, 0x12, 0xb8, 0xbc,
  0xa6, 0xab, 0x9e, 0xbe, 0xfd, 0x41, 0x1c, 0xbd, 0x44, 0x32, 0x91, 0x3e,
  0x41, 0x11, 0x1d, 0xbf, 0x50, 0x0f, 0x99, 0xbf, 0x61, 0x67, 0x6a, 0x3e,
  0x34, 0x1e, 0xab, 0xbd, 0xf2, 0x6e, 0x90, 0x3e, 0x7c, 0x95, 0x7a, 0xbe,
  0xc3, 0x9f, 0x2a, 0x3d, 0x16, 0x55, 0x00, 0xbe, 0xbe, 0x84, 0x4f, 0xbc,
  0x3a, 0xd7, 0x9f, 0x3d, 0x1b, 0xea, 0x26, 0x3e, 0x0f, 0x29, 0x9b, 0x3d,
  0x74, 0x1d, 0xf7, 0x3d, 0xcc, 0x68, 0xa6, 0xbe, 0x8a, 0xa5, 0x54, 0x3e,
  0x6d, 0x99, 0x33, 0xbe, 0xe6, 0xc0, 0x39, 0xbe, 0xac, 0x17, 0x22, 0xbe,
  0x9b, 0x93, 0xbf, 0xbe, 0xa9, 0x41, 0x1f, 0xbe, 0x33, 0x96, 0x05, 0x3e,
  0x4c, 0x4d, 0xf9, 0xbd, 0xaa, 0x95, 0x9d, 0x3d, 0xbf, 0x11, 0x8f, 0xbd,
  0x93, 0x28, 0x47, 0x3e, 0x4d, 0x75, 0x57, 0xbe, 0x4c, 0x37, 0xbe, 0x3e,
  0x87, 0x2e, 0x55, 0xbe, 0xb3, 0xd6, 0xfc, 0xbd, 0x90, 0x17, 0x9c, 0x3e,
  0xc7, 0x5b, 0x0d, 0xbe, 0x93, 0xeb, 0x2e, 0xbe, 0xae, 0x26, 0x42, 0xbe,
  0x4e, 0x12, 0x1f, 0xbc, 0xca, 0x74, 0x6a, 0xbd, 0xeb, 0x7b, 0xaf, 0xbc,
  0x46, 0x44, 0x04, 0x3e, 0x84, 0x93, 0xa5, 0xbe, 0x9a, 0xf5, 0xd4, 0x3d,
  0x7b, 0x19, 0x60, 0xbd, 0x4e, 0xbb, 0x17, 0xbd, 0x74, 0x81, 0x5c, 0xbf,
  0x04, 0xbb, 0x78, 0x3e, 0x64, 0x1e, 0xae, 0x3e, 0xc3, 0x94, 0x44, 0xbd,
  0x68, 0x92, 0x03, 0xbf, 0xf3, 0x21, 0x29, 0x3d, 0xbd, 0xd9, 0xd8, 0x3d,
  0xeb, 0xed, 0x12, 0x3d, 0x02, 0x87, 0x44, 0xbe, 0x13, 0xf1, 0x83, 0x3d,
  0x21, 0x59, 0x94, 0x3e, 0x4c, 0x8c, 0x45, 0xba, 0x85, 0xd4, 0x4d, 0x3d,
  0x95, 0x56, 0x47, 0xbc, 0x50, 0xeb, 0x71, 0xbe, 0xdd, 0x8e, 0x15, 0xbd,
  0x41, 0x2b, 0x28, 0x3d, 0x29, 0x5d, 0xd8, 0x3e, 0x0f, 0x80, 0xec, 0xbe,
  0xee, 0x01, 0xa3, 0x3c, 0x66, 0x78, 0x5f, 0xbe, 0x75, 0x8c, 0xce, 0xbe,
  0x4f, 0xcf, 0xb3, 0xbd, 0xd8, 0x9e, 0x09, 0xbe, 0xe8, 0x7e, 0x19, 0x3d,
  0xaa, 0xf3, 0xff, 0xff, 0x04, 0x00, 0x00, 0x00, 0x00, 0x0a, 0x00, 0x00,
  0x9b, 0x14, 0xee, 0xbe, 0x51, 0x24, 0x33, 0x3e, 0xc4, 0x62, 0x54, 0x3d,
  0x95, 0xe1, 0x16, 0x3f, 0x70, 0x3b, 0xbe, 0xbe, 0x49, 0xd5, 0xc0, 0xbc,
  0x55, 0x20, 0x8a, 0xbd, 0x5e, 0x47, 0x86, 0x3e, 0xa1, 0x91, 0x7f, 0xbe,
  0x45, 0xf8, 0xd0, 0xbd, 0x1d, 0x81, 0x16, 0x3f, 0x37, 0x59, 0x31, 0xbe,
  0x3b, 0x87, 0x81, 0xbc, 0x15, 0x0f, 0x93, 0xbe, 0xa1, 0xf5, 0x04, 0xbf,
  0x81, 0x83, 0x22, 0xbe, 0x5b, 0x85, 0xdd, 0xbd, 0xb2, 0x27, 0xf0, 0x3d,
  0xfa, 0x93, 0x2f, 0x3e, 0xa6, 0x62, 0xb8, 0x3e, 0xd1, 0x2e, 0x09, 0xbe,
  0x04, 0x9d, 0xa1, 0x3e, 0x98, 0x0c, 0xf4, 0x3e, 0x53, 0x81, 0xf2, 0x3c,
  0xf4, 0xbe, 0x66, 0xbe, 0x82, 0x96, 0xea, 0xbe, 0x88, 0xfd, 0x9f, 0x3d,
  0x92, 0x11, 0x3b, 0x3e, 0xf3, 0xa1, 0x0d, 0xbd, 0xb0, 0xe9, 0xe5, 0x3d,
  0xc3, 0x6c, 0x48, 0xbf, 0x12, 0x3a, 0x44, 0x3d, 0x43, 0xa9, 0x5d, 0xbd,
  0x2a, 0x20, 0xf5, 0x3c, 0xc2, 0xfa, 0xeb, 0xbd, 0x80, 0x92, 0xce, 0xbe,
  0x11, 0xcb, 0xa0, 0xbd, 0x2a, 0x7e, 0xda, 0x3b, 0x1b, 0xe9, 0x9a, 0xbe,
  0xd3, 0x0c, 0x40, 0x3d, 0xe9, 0x4d, 0x46, 0x3e, 0xba, 0x38, 0xc5, 0xbd,
  0xdc, 0x78, 0x4b, 0xbd, 0xb0, 0x23, 0xae, 0xbe, 0xc2, 0x4d, 0xa5, 0x3d,
  0xa9, 0x70, 0x13, 0xbe, 0xbd, 0x2c, 0x9e, 0x3d, 0x2d, 0x11, 0x74, 0x3b,
  0xbc, 0xc6, 0x76, 0x3f, 0x27, 0xb4, 0xd2, 0xbc, 0x7c, 0x8a, 0x56, 0x3e,
  0x86, 0xcf, 0xbe, 0x3c, 0x89, 0xe7, 0xe9, 0xbd, 0x76, 0x09, 0x57, 0xbd,
  0x4b, 0xb3, 0xd8, 0x3e, 0xf1, 0x83, 0xd4, 0xbc, 0xf2, 0x7d, 0x24, 0xbe,
  0xa8, 0x5a, 0xf7, 0xbc, 0xdb, 0x74, 0xf9, 0x3c, 0x2d, 0xb4, 0x91, 0x3c,
  0xce, 0xcd, 0xd5, 0x3e, 0xbd, 0x3c, 0x03, 0x3f, 0x27, 0x09, 0x01, 0x3d,
  0xf9, 0x4b, 0xfb, 0x3e, 0xbc, 0x7d, 0x83, 0xbe, 0x43, 0x25, 0xb7, 0x3e,
  0x71, 0x84, 0xed, 0x3d, 0x94, 0xec, 0x0c, 0xbe, 0x09, 0x48, 0x08, 0x3e,
  0x4c, 0xdf, 0x0c, 0x3e, 0x08, 0xa9, 0x79, 0x3e, 0x48, 0x77, 0xbc, 0xbd,
  0x8e, 0xb8, 0xdf, 0xbd, 0x60, 0x9c, 0x3e, 0x3e, 0xe6, 0xb0, 0x57, 0xbe,
  0xae, 0xec, 0x2b, 0x3f, 0x54, 0x08, 0x30, 0xbf, 0x6f, 0x57, 0x4a, 0x3d,
  0x22, 0x9d, 0xd6, 0x3e, 0x73, 0x4e, 0x63, 0xbe, 0x79, 0xc0, 0xa7, 0x3e,
  0x5b, 0x2a, 0x89, 0xbe, 0xc7, 0x34, 0xca, 0xbd, 0x92, 0x80, 0x36, 0x3c,
  0x76, 0x38, 0x81, 0x3e, 0x8b, 0x71, 0x7b, 0x3e, 0x6f, 0x0e, 0x23, 0x3d,
  0x1f, 0xaa, 0x94, 0xbc, 0xac, 0x23, 0x2d, 0x3e, 0x80, 0x41, 0xc0, 0x3c,
  0xd4, 0xc9, 0x29, 0x3e, 0xe6, 0xc8, 0x3a, 0xbd, 0x3e, 0x0d, 0xa2, 0x3d,
  0xce, 0x06, 0x2b, 0xbe, 0x9e, 0x53, 0xab, 0xbd, 0x41, 0x91, 0x1f, 0xbe,
  0xfb, 0xe7, 0x23, 0xbf, 0xd9, 0xa5, 0x80, 0xbd, 0x54, 0x65, 0xb3, 0x3e,
  0x71, 0x2c, 0x6c, 0xbd, 0x84, 0x3b, 0xaa, 0x3e, 0x27, 0xb3, 0x09, 0x3f,
  0x5e, 0xea, 0x92, 0xbe, 0x18, 0x72, 0x16, 0x3f, 0xb7, 0xcf, 0x69, 0xbe,
  0x9b, 0x52, 0x58, 0x3e, 0xbd, 0x77, 0x38, 0xbc, 0x4a, 0xac, 0x6d, 0xbd,
  0xc6, 0x29, 0x9f, 0xbb, 0x31, 0x0b, 0x0c, 0xbd, 0xc1, 0xbf, 0x07, 0xbf,
  0x21, 0xeb, 0xf2, 0xbe, 0x5e, 0x25, 0x84, 0x3d, 0x70, 0x12, 0x79, 0x3e,
  0x8d, 0x00, 0xb2, 0xbe, 0x82, 0x5f, 0x7f, 0xbe, 0xa7, 0xbf, 0xb7, 0xbd,
  0x7e, 0x9f, 0x9b, 0xbe, 0x0b, 0x73, 0xe5, 0xbe, 0x5e, 0x66, 0xc5, 0xbc,
  0x89, 0x0b, 0x84, 0xbe, 0xf7, 0xbd, 0xc3, 0xbd, 0xb5, 0xf4, 0x02, 0x3c,
  0xd6, 0x8a, 0x77, 0xbf, 0x5f, 0xcd, 0x05, 0xbe, 0xe3, 0xa7, 0x17, 0x3e,
  0x35, 0x3a, 0x2f, 0xbe, 0x3b, 0x27, 0x10, 0x3e, 0xdc, 0x5e, 0x0e, 0x3e,
  0x4f, 0x7f, 0x07, 0xbe, 0x94, 0x7f, 0xe5, 0x3e, 0x32, 0x33, 0xa5, 0x3d,
  0xd4, 0x5a, 0xa1, 0x39, 0x8f, 0x35, 0x97, 0xbd, 0xfd, 0x61, 0x44, 0x3e,
  0x85, 0xc9, 0xd3, 0x3d, 0xb0, 0x07, 0xfa, 0xbd, 0x9a, 0x3e, 0xa0, 0xbd,
  0x98, 0x99, 0x93, 0x3b, 0xf8, 0xcb, 0x99, 0x3c, 0xd5, 0xd8, 0x70, 0xbe,
  0x87, 0x1a, 0x4a, 0x3d, 0x81, 0xf0, 0xbb, 0xbd, 0x5d, 0xf5, 0x21, 0xbc,
  0x6b, 0xea, 0xc8, 0x3d, 0x70, 0xb8, 0xfb, 0xbd, 0x9a, 0x24, 0x7c, 0xbf,
  0x58, 0xf3, 0x8b, 0xbd, 0xae, 0xe6, 0x14, 0xbe, 0x5e, 0x40, 0xad, 0xbc,
  0x81, 0x88, 0x56, 0xbf, 0x2f, 0x89, 0xa3, 0xbe, 0x4a, 0x07, 0xb7, 0xbd,
  0x5b, 0x44, 0x20, 0x3e, 0xa0, 0xd4, 0x94, 0xbd, 0x78, 0x54, 0x38, 0xbe,
  0x17, 0x99, 0x0e, 0xbd, 0x61, 0x6f, 0xc8, 0xbe, 0x55, 0x9e, 0x4d, 0x3e,
  0x62, 0xa9, 0x5d, 0xbe, 0x7c, 0xd5, 0x46, 0x3d, 0x9e, 0x68, 0x2a, 0x3e,
  0xa8, 0x51, 0xf6, 0x3b, 0xc3, 0x9a, 0x4c, 0x3e, 0x5f, 0x73, 0x4d, 0x3e,
  0x10, 0x7f, 0x08, 0x3f, 0xb7, 0xb3, 0x19, 0xbd, 0xc4, 0xb4, 0x47, 0xbd,
  0x31, 0x3f, 0x04, 0x3c, 0xdd, 0x9e, 0x6d, 0xbd, 0x54, 0x28, 0xc1, 0x3c,
  0x9d, 0xbc, 0x7f, 0x3e, 0x45, 0x28, 0x24, 0x3e, 0xc1, 0xb1, 0xe0, 0x3d,
  0x5c, 0x57, 0x9b, 0x3c, 0xef, 0xe2, 0x3c, 0x3f, 0xb6, 0xc5, 0xff, 0xbd,
  0x41, 0x81, 0x38, 0x3d, 0x2e, 0x16, 0xed, 0x3e, 0xed, 0x8c, 0x1e, 0x3d,
  0x79, 0xf8, 0x1d, 0x3d, 0x1e, 0x91, 0xe0, 0x3d, 0x59, 0xfa, 0xb8, 0x3d,
  0x4d, 0xef, 0x7d, 0xbc, 0xd2, 0xc0, 0x2e, 0xbe, 0xbe, 0xdf, 0x54, 0xbe,
  0x2f, 0x33, 0xec, 0xbe, 0x84, 0xb3, 0x37, 0x3d, 0x3b, 0x44, 0x66, 0xbf,
  0x9d, 0x42, 0xe5, 0x3c, 0x7a, 0xbc, 0x6e, 0xbf, 0xcf, 0x5f, 0x9b, 0x3d,
  0x11, 0x1b, 0x8a, 0x3d, 0x9d, 0x83, 0xd6, 0xbc, 0x1e, 0x67, 0x85, 0xbe,
  0xd5, 0x7d, 0x89, 0xbe, 0x2a, 0x2a, 0xe2, 0xbd, 0x6c, 0x18, 0xfb, 0x3d,
  0x1a, 0x64, 0x64, 0x3e, 0x6b, 0xef, 0x6e, 0x3d, 0x72, 0xfb, 0x02, 0xbf,
  0x16, 0xd2, 0x48, 0xbe, 0x56, 0xa3, 0xc4, 0x3c, 0x1a, 0x22, 0x09, 0xbf,
  0xbf, 0x1f, 0x35, 0x3d, 0x72, 0x37, 0xc3, 0x3d, 0x3f, 0x82, 0xe3, 0x3d,
  0xb6, 0xcd, 0xb8, 0xbd, 0xb6, 0xda, 0x11, 0xbe, 0x73, 0xf7, 0x5b, 0xbc,
  0x53, 0x94, 0xa0, 0xbd, 0xaf, 0x97, 0x0b, 0xbe, 0x31, 0x48, 0x5d, 0xbd,
  0xd4, 0x02, 0x93, 0xbf, 0xe7, 0x4f, 0x2a, 0xbb, 0x59, 0xf8, 0x79, 0xbd,
  0x93, 0x2d, 0x50, 0xbe, 0x9c, 0x8a, 0xb6, 0xbc, 0x1b, 0x8b, 0x67, 0x3e,
  0x6b, 0x21, 0xe7, 0xbb, 0x4b, 0x66, 0xb9, 0xbe, 0x94, 0xe2, 0xd6, 0xbd,
  0x50, 0x1c, 0xc9, 0xbd, 0x91, 0x6a, 0xd8, 0xbc, 0xa7, 0x98, 0x6d, 0x3e,
  0x18, 0x18, 0x6f, 0x3d, 0x7b, 0x4b, 0xb3, 0x3e, 0x2a, 0xa8, 0x52, 0x3c,
  0x92, 0xc4, 0xb1, 0xbd, 0x71, 0xf9, 0x1d, 0x3d, 0x78, 0xd7, 0xb6, 0x3d,
  0xbe, 0x78, 0x0c, 0x3e, 0x02, 0xce, 0x9e, 0x3d, 0x39, 0x8a, 0x98, 0xbd,
  0xc8, 0x63, 0xa3, 0xbd, 0x65, 0x0e, 0x93, 0xbf, 0xf4, 0x69, 0x26, 0x3d,
  0xa9, 0x0a, 0x33, 0xbe, 0xcb, 0xd1, 0x0b, 0xbc, 0x05, 0x78, 0x3b, 0x3c,
  0x73, 0x9d, 0xae, 0x3e, 0x9f, 0x40, 0xd2, 0xbc, 0x0d, 0xae, 0x84, 0x3d,
  0xa6, 0x38, 0x0b, 0x3e, 0xbd, 0xb5, 0xc2, 0xbd, 0x9a, 0x28, 0xe9, 0x3d,
  0x73, 0x49, 0x10, 0xbf, 0x67, 0x32, 0x43, 0xbd, 0x7a, 0x98, 0x79, 0xbe,
  0xa2, 0x09, 0xa8, 0xbe, 0x21, 0xde, 0x3e, 0xbf, 0xd0, 0x5e, 0xdf, 0xbd,
  0xb6, 0x94, 0xb1, 0xbb, 0x03, 0xbf, 0x9c, 0x3c, 0x3c, 0x86, 0x9d, 0xbd,
  0xe6, 0x0e, 0x56, 0xbf, 0xd8, 0x51, 0x0a, 0x3d, 0xb8, 0xd9, 0x76, 0x3d,
  0x6b, 0x4c, 0x6d, 0x3d, 0xc8, 0xd7, 0xba, 0x3c, 0x00, 0x70, 0xb3, 0xbd,
  0x3d, 0xb0, 0x9e, 0x3c, 0xe3, 0x89, 0x0f, 0x3d, 0x40, 0xb5, 0xce, 0xbd,
  0x24, 0x6e, 0xad, 0xbc, 0x60, 0x97, 0x1c, 0xbe, 0x82, 0x32, 0x93, 0xbf,
  0x8c, 0x6a, 0xbe, 0xbb, 0x05, 0xbe, 0x98, 0xbd, 0x75, 0xed, 0x47, 0xbb,
  0x9b, 0xba, 0xa4, 0x3e, 0xbf, 0x8d, 0xe1, 0x3d, 0x03, 0xfc, 0x9a, 0x3e,
  0x0a, 0xff, 0xe2, 0x3d, 0xbe, 0x3e, 0x9e, 0xbd, 0xab, 0xce, 0x2d, 0xbe,
  0x04, 0xa0, 0x23, 0xbe, 0x00, 0xee, 0x8f, 0xbe, 0x08, 0x50, 0x0a, 0xbf,
  0x7d, 0x28, 0x54, 0x3e, 0xa3, 0x6e, 0xc6, 0x3d, 0x28, 0xa4, 0xd0, 0xbe,
  0x8e, 0x46, 0xce, 0x3d, 0x15, 0xa1, 0x0d, 0x3e, 0x6b, 0xad, 0x13, 0xbe,
  0x4c, 0xa2, 0x96, 0xbf, 0x26, 0x7c, 0x1c, 0xbe, 0xde, 0x24, 0x94, 0xbd,
  0xa9, 0xde, 0x82, 0x3e, 0x76, 0xac, 0xad, 0xbd, 0x11, 0x13, 0x0e, 0x3e,
  0x51, 0xe2, 0x4b, 0x3d, 0x87, 0x71, 0x79, 0x3d, 0xc3, 0xc9, 0x58, 0x3d,
  0x46, 0x25, 0xb4, 0x3e, 0x43, 0x59, 0xe8, 0xbd, 0xf5, 0xec, 0x34, 0x3d,
  0xc9, 0x4d, 0xf1, 0xbe, 0x63, 0x64, 0x21, 0xbe, 0x75, 0x97, 0xef, 0x3d,
  0x05, 0x08, 0x74, 0xbc, 0x1b, 0x8d, 0x0a, 0xbc, 0x07, 0x2c, 0x9c, 0xbd,
  0xef, 0x15, 0x8a, 0x3e, 0xdb, 0x47, 0x8b, 0xbf, 0xa7, 0x0a, 0x24, 0x3d,
  0xb9, 0x97, 0x55, 0x3d, 0xb0, 0x57, 0xae, 0x3d, 0xf9, 0x90, 0xb9, 0x3d,
  0x26, 0xb4, 0x40, 0x3e, 0x6b, 0xcf, 0x83, 0xbf, 0xc8, 0x55, 0xad, 0xbd,
  0x20, 0xb9, 0x9c, 0xbc, 0xe9, 0x2d, 0xd5, 0xbc, 0x53, 0x3d, 0xc9, 0xbd,
  0xba, 0xaf, 0xc2, 0xbe, 0x37, 0x1e, 0x28, 0x3d, 0xa8, 0x35, 0x84, 0x3d,
  0x0d, 0xce, 0x97, 0xbc, 0x3a, 0x4a, 0x89, 0x3c, 0x76, 0x04, 0x34, 0x3f,
  0x69, 0x4c, 0x49, 0x3d, 0x64, 0xd0, 0x5b, 0xbc, 0x92, 0xee, 0x07, 0xbe,
  0x96, 0x99, 0xd5, 0x3d, 0x00, 0xcc, 0x4b, 0x3d, 0x60, 0xde, 0xfc, 0xbd,
  0x70, 0x12, 0x9d, 0x3d, 0xf4, 0xfe, 0xa6, 0xbd, 0xf9, 0xe2, 0xec, 0x3c,
  0x35, 0xe0, 0x33, 0x3f, 0x62, 0xee, 0x1a, 0x3d, 0xbc, 0x13, 0x47, 0xbd,
  0x16, 0xe6, 0xfe, 0xbc, 0x0c, 0x67, 0xfb, 0xbb, 0x8b, 0x93, 0xae, 0x3d,
  0xf0, 0xb1, 0xad, 0xbd, 0xdc, 0x37, 0x43, 0x3d, 0x70, 0x73, 0x8c, 0xbd,
  0xcb, 0x39, 0x03, 0x3d, 0xfd, 0xc5, 0x4f, 0xbd, 0x81, 0x40, 0x07, 0x3d,
  0x13, 0xf3, 0xdc, 0x3c, 0x3a, 0x34, 0x1d, 0x3d, 0x5b, 0x69, 0xd9, 0x3c,
  0xd7, 0x77, 0x39, 0xbd, 0x13, 0x39, 0x4f, 0xbf, 0x79, 0x81, 0xb8, 0xbb,
  0x75, 0xb9, 0xdc, 0xbd, 0xd0, 0x7b, 0x0f, 0x3d, 0xe4, 0xa2, 0xe2, 0xbd,
  0xe4, 0xb5, 0xaa, 0xbe, 0x3a, 0xfc, 0x6b, 0xbd, 0x6f, 0xac, 0x88, 0xbf,
  0xac, 0x71, 0x30, 0x3d, 0xba, 0x4f, 0x28, 0xbe, 0xf8, 0x03, 0xb6, 0xbe,
  0x1b, 0xdc, 0x47, 0xbd, 0xe7, 0x8f, 0x1a, 0xbe, 0x70, 0x69, 0xdf, 0xbc,
  0x69, 0xb1, 0xb9, 0x3e, 0x40, 0x98, 0x38, 0x3d, 0xdf, 0x9a, 0x88, 0x3e,
  0x0a, 0xec, 0xa5, 0xbe, 0xd3, 0xa5, 0x25, 0x3e, 0x4d, 0xb6, 0x01, 0x3e,
  0x13, 0xcd, 0xef, 0xbb, 0xe3, 0xbd, 0xc6, 0x3b, 0x08, 0x87, 0x93, 0x3e,
  0x98, 0xa4, 0x0a, 0xbd, 0x35, 0xf5, 0x2e, 0xbe, 0x1d, 0xfb, 0x0a, 0x3e,
  0x86, 0xf2, 0xfe, 0xbd, 0x68, 0x5b, 0x38, 0xbb, 0x94, 0x92, 0xb5, 0x3e,
  0xf3, 0x27, 0x0e, 0xbe, 0xa4, 0xcc, 0x9a, 0xbd, 0x25, 0x31, 0xcd, 0x3d,
  0xbd, 0xbc, 0x8e, 0x3d, 0x4e, 0x6c, 0x1c, 0x3e, 0x1f, 0xa2, 0x5c, 0xbe,
  0xce, 0x61, 0x9a, 0x3c, 0xd9, 0x31, 0x7a, 0xbd, 0x90, 0xe1, 0x3c, 0xbe,
  0x27, 0x08, 0x54, 0xbd, 0x72, 0xe6, 0x8c, 0xbe, 0x92, 0x71, 0x5f, 0xbf,
  0xca, 0xa1, 0xc9, 0xbc, 0x7c, 0xc0, 0x34, 0xbe, 0x4c, 0x83, 0xac, 0x3c,
  0xfd, 0xd3, 0xab, 0x3d, 0xef, 0xbb, 0x12, 0x3d, 0x86, 0x6b, 0x8c, 0x3c,
  0x7e, 0x16, 0x4d, 0x3c, 0xf1, 0x1a, 0x80, 0xbf, 0x27, 0xd1, 0xe8, 0x3b,
  0x76, 0xec, 0x1d, 0xbd, 0x96, 0x93, 0x15, 0x3d, 0x6d, 0x1b, 0xd6, 0x3c,
  0x59, 0x35, 0xd2, 0x3c, 0xb7, 0x88, 0xa7, 0xbe, 0x5e, 0xd3, 0x4b, 0x3e,
  0x5e, 0x37, 0x2b, 0xbe, 0xc9, 0x29, 0x35, 0xbe, 0x61, 0x94, 0x4b, 0x3e,
  0xf7, 0x4d, 0x9e, 0xbd, 0xb3, 0xdd, 0x87, 0x3e, 0x9b, 0x55, 0x33, 0x3d,
  0x00, 0x1f, 0x3d, 0x3b, 0xbc, 0xec, 0x0d, 0x3e, 0x3c, 0x99, 0xcd, 0xbb,
  0x8f, 0xb6, 0xa9, 0x3d, 0x56, 0xc9, 0xdd, 0xbb, 0xd6, 0xcd, 0xc8, 0xbd,
  0x71, 0xf0, 0x89, 0xbe, 0x29, 0x8f, 0xe9, 0xbc, 0x33, 0xa8, 0x1f, 0xbf,
  0x47, 0x39, 0x28, 0x3e, 0x6b, 0xd5, 0x54, 0xbe, 0x62, 0x25, 0x10, 0x3e,
  0x50, 0x92, 0x22, 0xbd, 0xe0, 0x9f, 0xd6, 0x3d, 0xa1, 0xc5, 0x38, 0xbe,
  0x7a, 0xee, 0x56, 0x3e, 0x32, 0x96, 0x28, 0x3e, 0xe5, 0x89, 0x2e, 0xbe,
  0xff, 0x40, 0x03, 0xbf, 0xf3, 0xa2, 0x2d, 0xbd, 0x60, 0x2b, 0x31, 0xbd,
  0x70, 0x06, 0x10, 0xbe, 0x6b, 0x8d, 0x22, 0x3e, 0x2e, 0xd8, 0xe4, 0x3d,
  0x04, 0x77, 0x8e, 0xbd, 0x1e, 0x9a, 0x39, 0xbf, 0x21, 0xc9, 0x9f, 0x3e,
  0x73, 0xb5, 0xd6, 0xbd, 0xda, 0xd9, 0xbd, 0xbe, 0x00, 0x65, 0xaf, 0xbd,
  0x84, 0x2a, 0x99, 0xbe, 0xf7, 0xf4, 0xa2, 0xbc, 0xf8, 0xc1, 0x99, 0x3d,
  0x07, 0x80, 0xe0, 0x3e, 0xbd, 0x97, 0x32, 0x3d, 0xa2, 0xc6, 0xf7, 0x3b,
  0x0a, 0x33, 0x88, 0x3e, 0x87, 0x25, 0x72, 0xbe, 0xaf, 0x5c, 0x12, 0xbe,
  0x69, 0xa6, 0x10, 0x3e, 0x35, 0xf4, 0x9e, 0x3c, 0xab, 0x0d, 0x41, 0xbd,
  0x08, 0x4e, 0xbe, 0x3e, 0x56, 0x38, 0xa3, 0x3e, 0x19, 0x40, 0x03, 0x3e,
  0xf3, 0x06, 0xb0, 0x3e, 0x73, 0x78, 0xec, 0xba, 0xb5, 0x9c, 0x6d, 0x3d,
  0x3b, 0x41, 0x05, 0x3f, 0x10, 0x8d, 0x44, 0xbd, 0x20, 0x8d, 0x39, 0x3e,
  0xc9, 0x47, 0x8d, 0x3c, 0xe5, 0x86, 0x44, 0xbf, 0x55, 0xd0, 0x01, 0xbe,
  0x85, 0x9d, 0x04, 0xbf, 0x9f, 0x0a, 0xaf, 0x3e, 0x49, 0x1a, 0x8b, 0xbd,
  0xc0, 0x1c, 0x9d, 0x3e, 0x86, 0x76, 0xc6, 0xbe, 0x0f, 0x19, 0xc8, 0xbb,
  0xe0, 0x4e, 0xfc, 0x3d, 0x5f, 0x7a, 0xdb, 0x3c, 0xf9, 0xe0, 0x87, 0x3d,
  0x15, 0xe0, 0xbc, 0xbe, 0x25, 0xb3, 0xf8, 0x3d, 0x30, 0x24, 0xd6, 0x3b,
  0x37, 0x34, 0x99, 0xbe, 0x09, 0x96, 0x17, 0xbf, 0x91, 0x4f, 0xcf, 0xbe,
  0xdc, 0xd6, 0x74, 0x3d, 0x1a, 0x55, 0xee, 0x3e, 0x9f, 0xca, 0x03, 0xbe,
  0x27, 0xe1, 0xc9, 0x3e, 0x81, 0x74, 0xf1, 0x3d, 0x9f, 0x51, 0xe5, 0x3d,
  0x34, 0xaf, 0x39, 0x3d, 0xcc, 0x7f, 0xcc, 0xbd, 0xd3, 0xa6, 0x83, 0x3d,
  0x5d, 0xa6, 0xab, 0xbe, 0xb1, 0x98, 0xc6, 0xbc, 0x8a, 0x6c, 0x24, 0xbf,
  0x2c, 0x3d, 0x39, 0xbd, 0x8c, 0x2f, 0xd0, 0xbd, 0xd2, 0x83, 0xc6, 0xbe,
  0x65, 0xa1, 0x36, 0x3e, 0xd8, 0xae, 0x9e, 0xbb, 0x4b, 0xc4, 0xca, 0xbd,
  0xb9, 0xc4, 0xbf, 0x3e, 0x50, 0x11, 0x62, 0xbe, 0x07, 0xe4, 0x99, 0x3d,
  0x32, 0x70, 0x4b, 0xbf, 0xca, 0x4a, 0xcb, 0xbc, 0x1a, 0x53, 0x93, 0xbe,
  0x70, 0x88, 0x33, 0x3e, 0x0d, 0xfd, 0x0e, 0x3d, 0x1d, 0x3a, 0xe7, 0x3d,
  0x96, 0x10, 0x4e, 0x3e, 0xff, 0x8c, 0x2c, 0x3c, 0xec, 0x37, 0xf7, 0xbe,
  0xf8, 0x68, 0xf0, 0x3a, 0x1b, 0x15, 0xf2, 0xbd, 0x23, 0x81, 0xb2, 0xbd,
  0xd9, 0x9f, 0x67, 0x3d, 0x23, 0x1a, 0xec, 0xbd, 0x9c, 0xf1, 0xe9, 0xbd,
  0x35, 0x2b, 0xdb, 0xbe, 0xc6, 0x7d, 0xae, 0xbd, 0xe8, 0x3d, 0x51, 0x3f,
  0x9e, 0xb9, 0x71, 0x3e, 0x45, 0xd6, 0x21, 0xbc, 0x08, 0x47, 0xd1, 0xbd,
  0x8e, 0x40, 0x52, 0x3c, 0xc3, 0x6b, 0x85, 0xbd, 0x7a, 0x47, 0x93, 0x3e,
  0x0a, 0x3f, 0x4c, 0x3d, 0x0b, 0x42, 0xbe, 0xbd, 0x08, 0xf8, 0x9d, 0x3c,
  0xb4, 0x63, 0xbc, 0xbc, 0xc1, 0x2a, 0xcc, 0xbe, 0x76, 0x61, 0x52, 0xbc,
  0x84, 0xd2, 0x3b, 0xbf, 0x9f, 0xaf, 0xdd, 0x3d, 0x1c, 0xec, 0xcc, 0x3e,
  0x71, 0x01, 0xe8, 0xbe, 0xfc, 0xa5, 0xf4, 0xbc, 0xd8, 0x4c, 0xad, 0xbe,
  0x4d, 0x75, 0x00, 0xbc, 0x45, 0xab, 0xee, 0x3c, 0xa4, 0x29, 0xef, 0x3d,
  0x9c, 0xb8, 0xe9, 0xbd, 0xb2, 0xed, 0x94, 0xbe, 0x5c, 0x7f, 0x86, 0xbd,
  0xea, 0xda, 0x16, 0x3d, 0xe9, 0x15, 0x6e, 0xbd, 0x0f, 0x5b, 0x9d, 0x3d,
  0x92, 0xd2, 0xd9, 0x3d, 0x49, 0x43, 0x44, 0x3d, 0x6e, 0x8a, 0x62, 0xbf,
  0xa1, 0xb3, 0x2a, 0xbe, 0x24, 0x07, 0xee, 0xbc, 0x47, 0xee, 0xfd, 0xbe,
  0x99, 0xb8, 0x82, 0x3d, 0x8d, 0x67, 0x39, 0x3e, 0x10, 0x50, 0x1b, 0xbd,
  0x19, 0x1e, 0x5b, 0xbf, 0x36, 0x20, 0x09, 0x3d, 0x29, 0x3a, 0x0f, 0x3d,
  0x8e, 0x1f, 0x9b, 0xbd, 0x26, 0xd3, 0x60, 0x3e, 0x47, 0x3c, 0x14, 0xbd,
  0xab, 0xf6, 0x7a, 0xbe, 0x7e, 0xc0, 0x13, 0x3d, 0xb8, 0x9e, 0x5c, 0xbd,
  0xf8, 0x41, 0x8a, 0x3e, 0x79, 0xf8, 0xbf, 0x3e, 0x87, 0x1d, 0xeb, 0x3c,
  0xaa, 0x85, 0xc8, 0xbe, 0x70, 0x9d, 0x7f, 0xbe, 0x04, 0xa4, 0x1e, 0x3d,
  0x72, 0xe3, 0x96, 0x3e, 0x1a, 0xf2, 0xe7, 0xbd, 0x30, 0x6d, 0x21, 0x3e,
  0x90, 0xf3, 0x37, 0x3e, 0x16, 0xd0, 0x39, 0xbe, 0xd9, 0x1e, 0xce, 0xbc,
  0x3a, 0x23, 0x23, 0xbf, 0xba, 0x22, 0x82, 0xbb, 0x14, 0x50, 0x0f, 0x3c,
  0x4e, 0xdb, 0x23, 0x3e, 0x68, 0xc5, 0x9f, 0xbd, 0x35, 0x5e, 0x89, 0xbe,
  0xe5, 0x36, 0x1f, 0xbd, 0x0d, 0xec, 0x8a, 0xbc, 0xf7, 0x22, 0xd1, 0x3c,
  0xee, 0x89, 0x1c, 0x3f, 0x0b, 0xa6, 0x2e, 0xbe, 0x6c, 0x70, 0x2a, 0xbd,
  0xfb, 0x31, 0x0a, 0xbe, 0x1f, 0x0f, 0x4c, 0xbe, 0xcd, 0x1b, 0x49, 0xbd,
  0xb9, 0x39, 0x53, 0x3e, 0x39, 0x75, 0xcc, 0xbd, 0x0b, 0xd5, 0xac, 0x3e,
  0x87, 0x45, 0xcd, 0x3c, 0x2e, 0x28, 0x01, 0xbd, 0xfb, 0x3f, 0xb3, 0x3d,
  0x2d, 0x36, 0x6a, 0xbf, 0x8e, 0xb6, 0x08, 0x3c, 0xa1, 0xde, 0x42, 0xbd,
  0x69, 0x17, 0x8b, 0x3e, 0xa2, 0x68, 0x6a, 0x3d, 0xf0, 0x36, 0x92, 0x3c,
  0x77, 0xe7, 0x86, 0x3a, 0x47, 0xb3, 0x5a, 0x3c, 0x5c, 0x1e, 0x42, 0x3b,
  0x80, 0xc6, 0x5d, 0x3d, 0xf1, 0x2e, 0xb5, 0x3c, 0x63, 0xb5, 0xac, 0x3f,
  0x2a, 0xb8, 0x2e, 0x3b, 0x73, 0xa9, 0x64, 0xbd, 0x14, 0xa6, 0x1e, 0xbd,
  0xe6, 0xff, 0xf7, 0x3c, 0xdc, 0x1f, 0x5a, 0xbf, 0xd1, 0x1f, 0xdd, 0x3c,
  0xbf, 0x68, 0x38, 0x3d, 0xce, 0xb0, 0x65, 0xbd, 0x6b, 0xa0, 0x61, 0xbe,
  0x15, 0x56, 0xdc, 0xbd, 0xd1, 0xe8, 0xa7, 0x3c, 0xbd, 0xe2, 0x3b, 0x3e,
  0xd4, 0xb9, 0x2f, 0xbe, 0x86, 0xe7, 0x3e, 0x3d, 0x11, 0xd8, 0xc0, 0x3e,
  0x8b, 0x31, 0xe5, 0xbe, 0x18, 0xbc, 0x92, 0xbe, 0x74, 0xf4, 0x3c, 0x3d,
  0x39, 0x10, 0x78, 0xbe, 0x49, 0x4e, 0x12, 0xbf, 0x8c, 0xff, 0xb0, 0xbe,
  0x0f, 0xc0, 0x58, 0xbc, 0x09, 0x65, 0x08, 0xbf, 0x71, 0x5b, 0x86, 0x3c,
  0x2a, 0xef, 0x61, 0xbd, 0xb4, 0xc6, 0xaf, 0xbc, 0x5e, 0x3f, 0xc6, 0xbd,
  0x86, 0xe0, 0x9f, 0xbf, 0x03, 0x35, 0x72, 0xbd, 0x07, 0xcf, 0x48, 0x3d,
  0x45, 0x19, 0xab, 0xbe, 0x7b, 0x53, 0x8a, 0xbd, 0x2b, 0x9c, 0x8a, 0x3e,
  0x4a, 0xbe, 0x1e, 0xbd, 0xb6, 0xfd, 0xff, 0xff, 0x04, 0x00, 0x00, 0x00,
  0x00, 0x01, 0x00, 0x00, 0x4c, 0x94, 0x87, 0xbe, 0x54, 0x23, 0xb0, 0x3d,
  0xc8, 0x67, 0x28, 0xbe, 0xe9, 0x64, 0x00, 0xbf, 0x4b, 0x52, 0xa2, 0xbc,
  0x43, 0x3e, 0x92, 0xbe, 0x89, 0xf9, 0x34, 0xbe, 0x40, 0x37, 0x04, 0xbe,
  0x75, 0xd2, 0x13, 0xbf, 0x67, 0xa9, 0x90, 0x3d, 0x39, 0x97, 0x81, 0xbe,
  0x8b, 0xbc, 0x0f, 0x3d, 0xc4, 0x6d, 0xb0, 0x3b, 0x1d, 0xc0, 0xd3, 0x3d,
  0x93, 0x8e, 0x52, 0x3e, 0x41, 0x79, 0xc6, 0x3d, 0x6e, 0x5b, 0x28, 0xbf,
  0x9b, 0x6d, 0xba, 0xbe, 0xc7, 0xcc, 0x15, 0x3e, 0xfa, 0x57, 0xab, 0xbe,
  0x82, 0x37, 0x8f, 0xbe, 0x71, 0x6b, 0xa8, 0xbd, 0x53, 0xfd, 0xe4, 0xbe,
  0x71, 0xf8, 0x1d, 0x3e, 0x78, 0xc0, 0xb4, 0x3e, 0x90, 0xc1, 0xde, 0xbe,
  0x6f, 0x37, 0xc4, 0x3e, 0x84, 0xbe, 0xc2, 0x3d, 0xaf, 0xf7, 0x9c, 0xbd,
  0xf0, 0x34, 0x54, 0x3c, 0x51, 0x1f, 0xfe, 0x3e, 0x43, 0x14, 0x05, 0xbf,
  0xa6, 0x2b, 0x3a, 0x3e, 0x47, 0x7f, 0xac, 0x3e, 0x0e, 0x4f, 0xa4, 0x3e,
  0xea, 0x47, 0x23, 0xbe, 0xda, 0xbb, 0xd1, 0xbe, 0x29, 0x5d, 0xbc, 0xbe,
  0xc3, 0x1f, 0xcd, 0x3e, 0xc3, 0xbe, 0x26, 0x3f, 0x0c, 0x2a, 0x13, 0xbf,
  0x85, 0x36, 0x04, 0x3f, 0xa3, 0x69, 0x88, 0x3e, 0x5e, 0x49, 0x60, 0xbd,
  0x70, 0x12, 0x32, 0xbe, 0x5b, 0x52, 0x93, 0xbe, 0xd8, 0xa5, 0x79, 0xbe,
  0xf1, 0x5e, 0x02, 0x3d, 0xf8, 0xef, 0xb3, 0x3d, 0xdd, 0x9a, 0x46, 0xbd,
  0xaf, 0x0e, 0xfd, 0x3d, 0x2b, 0x2a, 0xa6, 0xbe, 0x86, 0x89, 0x28, 0xbe,
  0x35, 0x2a, 0x59, 0xbe, 0xcc, 0x68, 0x80, 0xbd, 0x92, 0xe9, 0xd8, 0xbe,
  0x03, 0x56, 0x4b, 0x3d, 0x02, 0x4e, 0xc1, 0xbe, 0x7a, 0x37, 0x34, 0x3d,
  0xf2, 0xc0, 0xcb, 0x3e, 0x73, 0x41, 0xc5, 0xbe, 0xd2, 0x0c, 0xfc, 0xbe,
  0x73, 0xf6, 0x1c, 0xbe, 0xa5, 0x54, 0x99, 0x3d, 0xc2, 0xfe, 0xff, 0xff,
  0x04, 0x00, 0x00, 0x00, 0x80, 0x00, 0x00, 0x00, 0x30, 0x3a, 0x01, 0xbe,
  0x83, 0x40, 0x21, 0x3f, 0xf0, 0xf4, 0x26, 0xbe, 0x21, 0xa6, 0x4e, 0xbe,
  0x1c, 0xad, 0x16, 0x3f, 0x0e, 0x62, 0xc6, 0xbd, 0xe2, 0xd7, 0xe5, 0x3e,
  0xe4, 0xde, 0x2c, 0x3e, 0xe8, 0x7b, 0x35, 0xbc, 0x39, 0x69, 0xae, 0x3d,
  0x1d, 0x43, 0xeb, 0xbe, 0x63, 0x47, 0x56, 0x3e, 0x09, 0xa6, 0xba, 0x3e,
  0x3c, 0x19, 0x67, 0xbe, 0x7e, 0x80, 0x21, 0x3f, 0xcc, 0x1b, 0x30, 0x3f,
  0xd8, 0x95, 0x6a, 0xbe, 0x5c, 0xea, 0x41, 0x3e, 0xaf, 0x1f, 0xd5, 0xbd,
  0x56, 0xb0, 0xf5, 0x3e, 0x67, 0x56, 0x9d, 0xbe, 0xa6, 0xd7, 0x13, 0x3f,
  0x84, 0x2f, 0xca, 0xbd, 0xf7, 0x8a, 0x9c, 0xbe, 0xb9, 0x6a, 0x12, 0x3f,
  0x79, 0xb8, 0x71, 0x3e, 0xcf, 0x62, 0x17, 0x3f, 0x6f, 0x2a, 0x47, 0x3e,
  0xd9, 0x2f, 0x1e, 0xbe, 0x84, 0xe1, 0x0f, 0x3e, 0x23, 0xad, 0x27, 0x3e,
  0xd1, 0xf9, 0x01, 0x3f, 0x4e, 0xff, 0xff, 0xff, 0x04, 0x00, 0x00, 0x00,
  0x10, 0x00, 0x00, 0x00, 0xe4, 0x35, 0x4b, 0x3e, 0xaf, 0x17, 0x4c, 0x3d,
  0xb7, 0x52, 0x94, 0xbd, 0x94, 0x35, 0x51, 0xbe, 0x40, 0xfa, 0xff, 0xff,
  0x44, 0xfa, 0xff, 0xff, 0x0f, 0x00, 0x00, 0x00, 0x4d, 0x4c, 0x49, 0x52,
  0x20, 0x43, 0x6f, 0x6e, 0x76, 0x65, 0x72, 0x74, 0x65, 0x64, 0x2e, 0x00,
  0x01, 0x00, 0x00, 0x00, 0x14, 0x00, 0x00, 0x00, 0x00, 0x00, 0x0e, 0x00,
  0x18, 0x00, 0x14, 0x00, 0x10, 0x00, 0x0c, 0x00, 0x08, 0x00, 0x04, 0x00,
  0x0e, 0x00, 0x00, 0x00, 0x14, 0x00, 0x00, 0x00, 0x1c, 0x00, 0x00, 0x00,
  0x24, 0x01, 0x00, 0x00, 0x28, 0x01, 0x00, 0x00, 0x2c, 0x01, 0x00, 0x00,
  0x04, 0x00, 0x00, 0x00, 0x6d, 0x61, 0x69, 0x6e, 0x00, 0x00, 0x00, 0x00,
  0x04, 0x00, 0x00, 0x00, 0xcc, 0x00, 0x00, 0x00, 0x84, 0x00, 0x00, 0x00,
  0x50, 0x00, 0x00, 0x00, 0x14, 0x00, 0x00, 0x00, 0x00, 0x00, 0x0e, 0x00,
  0x1a, 0x00, 0x14, 0x00, 0x10, 0x00, 0x0c, 0x00, 0x0b, 0x00, 0x04, 0x00,
  0x0e, 0x00, 0x00, 0x00, 0x1c, 0x00, 0x00, 0x00, 0x00, 0x00, 0x00, 0x09,
  0x1c, 0x00, 0x00, 0x00, 0x20, 0x00, 0x00, 0x00, 0x01, 0x00, 0x00, 0x00,
  0x00, 0x00, 0x06, 0x00, 0x08, 0x00, 0x04, 0x00, 0x06, 0x00, 0x00, 0x00,
  0x00, 0x00, 0x80, 0x3f, 0x01, 0x00, 0x00, 0x00, 0x0a, 0x00, 0x00, 0x00,
  0x01, 0x00, 0x00, 0x00, 0x09, 0x00, 0x00, 0x00, 0x9a, 0xff, 0xff, 0xff,
  0x10, 0x00, 0x00, 0x00, 0x00, 0x00, 0x00, 0x08, 0x0c, 0x00, 0x00, 0x00,
  0x10, 0x00, 0x00, 0x00, 0x08, 0xfb, 0xff, 0xff, 0x01, 0x00, 0x00, 0x00,
  0x09, 0x00, 0x00, 0x00, 0x03, 0x00, 0x00, 0x00, 0x08, 0x00, 0x00, 0x00,
  0x06, 0x00, 0x00, 0x00, 0x01, 0x00, 0x00, 0x00, 0xca, 0xff, 0xff, 0xff,
  0x10, 0x00, 0x00, 0x00, 0x00, 0x00, 0x00, 0x08, 0x10, 0x00, 0x00, 0x00,
  0x14, 0x00, 0x00, 0x00, 0xba, 0xff, 0xff, 0xff, 0x00, 0x00, 0x00, 0x01,
  0x01, 0x00, 0x00, 0x00, 0x08, 0x00, 0x00, 0x00, 0x03, 0x00, 0x00, 0x00,
  0x07, 0x00, 0x00, 0x00, 0x05, 0x00, 0x00, 0x00, 0x02, 0x00, 0x00, 0x00,
  0x00, 0x00, 0x0e, 0x00, 0x16, 0x00, 0x00, 0x00, 0x10, 0x00, 0x0c, 0x00,
  0x0b, 0x00, 0x04, 0x00, 0x0e, 0x00, 0x00, 0x00, 0x18, 0x00, 0x00, 0x00,
  0x00, 0x00, 0x00, 0x08, 0x18, 0x00, 0x00, 0x00, 0x1c, 0x00, 0x00, 0x00,
  0x00, 0x00, 0x06, 0x00, 0x08, 0x00, 0x07, 0x00, 0x06, 0x00, 0x00, 0x00,
  0x00, 0x00, 0x00, 0x01, 0x01, 0x00, 0x00, 0x00, 0x07, 0x00, 0x00, 0x00,
  0x03, 0x00, 0x00, 0x00, 0x00, 0x00, 0x00, 0x00, 0x04, 0x00, 0x00, 0x00,
  0x03, 0x00, 0x00, 0x00, 0x01, 0x00, 0x00, 0x00, 0x0a, 0x00, 0x00, 0x00,
  0x01, 0x00, 0x00, 0x00, 0x00, 0x00, 0x00, 0x00, 0x0b, 0x00, 0x00, 0x00,
  0x20, 0x04, 0x00, 0x00, 0xb0, 0x03, 0x00, 0x00, 0x40, 0x03, 0x00, 0x00,
  0xe8, 0x02, 0x00, 0x00, 0x9c, 0x02, 0x00, 0x00, 0x50, 0x02, 0x00, 0x00,
  0x04, 0x02, 0x00, 0x00, 0x70, 0x01, 0x00, 0x00, 0xdc, 0x00, 0x00, 0x00,
  0x60, 0x00, 0x00, 0x00, 0x04, 0x00, 0x00, 0x00, 0x22, 0xfc, 0xff, 0xff,
  0x00, 0x00, 0x00, 0x01, 0x14, 0x00, 0x00, 0x00, 0x1c, 0x00, 0x00, 0x00,
  0x1c, 0x00, 0x00, 0x00, 0x0b, 0x00, 0x00, 0x00, 0x34, 0x00, 0x00, 0x00,
  0x02, 0x00, 0x00, 0x00, 0xff, 0xff, 0xff, 0xff, 0x04, 0x00, 0x00, 0x00,
  0x0c, 0xfc, 0xff, 0xff, 0x19, 0x00, 0x00, 0x00, 0x53, 0x74, 0x61, 0x74,
  0x65, 0x66, 0x75, 0x6c, 0x50, 0x61, 0x72, 0x74, 0x69, 0x74, 0x69, 0x6f,
  0x6e, 0x65, 0x64, 0x43, 0x61, 0x6c, 0x6c, 0x3a, 0x30, 0x00, 0x00, 0x00,
  0x02, 0x00, 0x00, 0x00, 0x01, 0x00, 0x00, 0x00, 0x04, 0x00, 0x00, 0x00,
  0x7a, 0xfc, 0xff, 0xff, 0x00, 0x00, 0x00, 0x01, 0x14, 0x00, 0x00, 0x00,
  0x1c, 0x00, 0x00, 0x00, 0x1c, 0x00, 0x00, 0x00, 0x0a, 0x00, 0x00, 0x00,
  0x54, 0x00, 0x00, 0x00, 0x02, 0x00, 0x00, 0x00, 0xff, 0xff, 0xff, 0xff,
  0x04, 0x00, 0x00, 0x00, 0x64, 0xfc, 0xff, 0xff, 0x38, 0x00, 0x00, 0x00,
  0x73, 0x65, 0x71, 0x75, 0x65, 0x6e, 0x74, 0x69, 0x61, 0x6c, 0x5f, 0x32,
  0x2f, 0x64, 0x65, 0x6e, 0x73, 0x65, 0x5f, 0x36, 0x2f, 0x4d, 0x61, 0x74,
  0x4d, 0x75, 0x6c, 0x3b, 0x73, 0x65, 0x71, 0x75, 0x65, 0x6e, 0x74, 0x69,
  0x61, 0x6c, 0x5f, 0x32, 0x2f, 0x64, 0x65, 0x6e, 0x73, 0x65, 0x5f, 0x36,
  0x2f, 0x42, 0x69, 0x61, 0x73, 0x41, 0x64, 0x64, 0x00, 0x00, 0x00, 0x00,
  0x02, 0x00, 0x00, 0x00, 0x01, 0x00, 0x00, 0x00, 0x04, 0x00, 0x00, 0x00,
  0xf2, 0xfc, 0xff, 0xff, 0x00, 0x00, 0x00, 0x01, 0x14, 0x00, 0x00, 0x00,
  0x1c, 0x00, 0x00, 0x00, 0x1c, 0x00, 0x00, 0x00, 0x09, 0x00, 0x00, 0x00,
  0x6c, 0x00, 0x00, 0x00, 0x02, 0x00, 0x00, 0x00, 0xff, 0xff, 0xff, 0xff,
  0x20, 0x00, 0x00, 0x00, 0xdc, 0xfc, 0xff, 0xff, 0x52, 0x00, 0x00, 0x00,
  0x73, 0x65, 0x71, 0x75, 0x65, 0x6e, 0x74, 0x69, 0x61, 0x6c, 0x5f, 0x32,
  0x2f, 0x64, 0x65, 0x6e, 0x73, 0x65, 0x5f, 0x35, 0x2f, 0x4d, 0x61, 0x74,
  0x4d, 0x75, 0x6c, 0x3b, 0x73, 0x65, 0x71, 0x75, 0x65, 0x6e, 0x74, 0x69,
  0x61, 0x6c, 0x5f, 0x32, 0x2f, 0x64, 0x65, 0x6e, 0x73, 0x65, 0x5f, 0x35,
  0x2f, 0x52, 0x65, 0x6c, 0x75, 0x3b, 0x73, 0x65, 0x71, 0x75, 0x65, 0x6e,
  0x74, 0x69, 0x61, 0x6c, 0x5f, 0x32, 0x2f, 0x64, 0x65, 0x6e, 0x73, 0x65,
  0x5f, 0x35, 0x2f, 0x42, 0x69, 0x61, 0x73, 0x41, 0x64, 0x64, 0x00, 0x00,
  0x02, 0x00, 0x00, 0x00, 0x01, 0x00, 0x00, 0x00, 0x20, 0x00, 0x00, 0x00,
  0x82, 0xfd, 0xff, 0xff, 0x00, 0x00, 0x00, 0x01, 0x14, 0x00, 0x00, 0x00,
  0x1c, 0x00, 0x00, 0x00, 0x1c, 0x00, 0x00, 0x00, 0x08, 0x00, 0x00, 0x00,
  0x6c, 0x00, 0x00, 0x00, 0x02, 0x00, 0x00, 0x00, 0xff, 0xff, 0xff, 0xff,
  0x40, 0x00, 0x00, 0x00, 0x6c, 0xfd, 0xff, 0xff, 0x52, 0x00, 0x00, 0x00,
  0x73, 0x65, 0x71, 0x75, 0x65, 0x6e, 0x74, 0x69, 0x61, 0x6c, 0x5f, 0x32,
  0x2f, 0x64, 0x65, 0x6e, 0x73, 0x65, 0x5f, 0x34, 0x2f, 0x4d, 0x61, 0x74,
  0x4d, 0x75, 0x6c, 0x3b, 0x73, 0x65, 0x71, 0x75, 0x65, 0x6e, 0x74, 0x69,
  0x61, 0x6c, 0x5f, 0x32, 0x2f, 0x64, 0x65, 0x6e, 0x73, 0x65, 0x5f, 0x34,
  0x2f, 0x52, 0x65, 0x6c, 0x75, 0x3b, 0x73, 0x65, 0x71, 0x75, 0x65, 0x6e,
  0x74, 0x69, 0x61, 0x6c, 0x5f, 0x32, 0x2f, 0x64, 0x65, 0x6e, 0x73, 0x65,
  0x5f, 0x34, 0x2f, 0x42, 0x69, 0x61, 0x73, 0x41, 0x64, 0x64, 0x00, 0x00,
  0x02, 0x00, 0x00, 0x00, 0x01, 0x00, 0x00, 0x00, 0x40, 0x00, 0x00, 0x00,
  0x7e, 0xfe, 0xff, 0xff, 0x00, 0x00, 0x00, 0x01, 0x10, 0x00, 0x00, 0x00,
  0x10, 0x00, 0x00, 0x00, 0x07, 0x00, 0x00, 0x00, 0x28, 0x00, 0x00, 0x00,
  0xec, 0xfd, 0xff, 0xff, 0x1b, 0x00, 0x00, 0x00, 0x73, 0x65, 0x71, 0x75,
  0x65, 0x6e, 0x74, 0x69, 0x61, 0x6c, 0x5f, 0x32, 0x2f, 0x64, 0x65, 0x6e,
  0x73, 0x65, 0x5f, 0x36, 0x2f, 0x4d, 0x61, 0x74, 0x4d, 0x75, 0x6c, 0x00,
  0x02, 0x00, 0x00, 0x00, 0x04, 0x00, 0x00, 0x00, 0x20, 0x00, 0x00, 0x00,
  0xc6, 0xfe, 0xff, 0xff, 0x00, 0x00, 0x00, 0x01, 0x10, 0x00, 0x00, 0x00,
  0x10, 0x00, 0x00, 0x00, 0x06, 0x00, 0x00, 0x00, 0x28, 0x00, 0x00, 0x00,
  0x34, 0xfe, 0xff, 0xff, 0x1b, 0x00, 0x00, 0x00, 0x73, 0x65, 0x71, 0x75,
  0x65, 0x6e, 0x74, 0x69, 0x61, 0x6c, 0x5f, 0x32, 0x2f, 0x64, 0x65, 0x6e,
  0x73, 0x65, 0x5f, 0x35, 0x2f, 0x4d, 0x61, 0x74, 0x4d, 0x75, 0x6c, 0x00,
  0x02, 0x00, 0x00, 0x00, 0x20, 0x00, 0x00, 0x00, 0x40, 0x00, 0x00, 0x00,
  0x0e, 0xff, 0xff, 0xff, 0x00, 0x00, 0x00, 0x01, 0x10, 0x00, 0x00, 0x00,
  0x10, 0x00, 0x00, 0x00, 0x05, 0x00, 0x00, 0x00, 0x28, 0x00, 0x00, 0x00,
  0x7c, 0xfe, 0xff, 0xff, 0x1b, 0x00, 0x00, 0x00, 0x73, 0x65, 0x71, 0x75,
  0x65, 0x6e, 0x74, 0x69, 0x61, 0x6c, 0x5f, 0x32, 0x2f, 0x64, 0x65, 0x6e,
  0x73, 0x65, 0x5f, 0x34, 0x2f, 0x4d, 0x61, 0x74, 0x4d, 0x75, 0x6c, 0x00,
  0x02, 0x00, 0x00, 0x00, 0x40, 0x00, 0x00, 0x00, 0x0a, 0x00, 0x00, 0x00,
  0x56, 0xff, 0xff, 0xff, 0x00, 0x00, 0x00, 0x01, 0x10, 0x00, 0x00, 0x00,
  0x10, 0x00, 0x00, 0x00, 0x04, 0x00, 0x00, 0x00, 0x38, 0x00, 0x00, 0x00,
  0xc4, 0xfe, 0xff, 0xff, 0x2b, 0x00, 0x00, 0x00, 0x73, 0x65, 0x71, 0x75,
  0x65, 0x6e, 0x74, 0x69, 0x61, 0x6c, 0x5f, 0x32, 0x2f, 0x64, 0x65, 0x6e,
  0x73, 0x65, 0x5f, 0x34, 0x2f, 0x42, 0x69, 0x61, 0x73, 0x41, 0x64, 0x64,
  0x2f, 0x52, 0x65, 0x61, 0x64, 0x56, 0x61, 0x72, 0x69, 0x61, 0x62, 0x6c,
  0x65, 0x4f, 0x70, 0x00, 0x01, 0x00, 0x00, 0x00, 0x40, 0x00, 0x00, 0x00,
  0xaa, 0xff, 0xff, 0xff, 0x00, 0x00, 0x00, 0x01, 0x10, 0x00, 0x00, 0x00,
  0x10, 0x00, 0x00, 0x00, 0x03, 0x00, 0x00, 0x00, 0x38, 0x00, 0x00, 0x00,
  0x18, 0xff, 0xff, 0xff, 0x2b, 0x00, 0x00, 0x00, 0x73, 0x65, 0x71, 0x75,
  0x65, 0x6e, 0x74, 0x69, 0x61, 0x6c, 0x5f, 0x32, 0x2f, 0x64, 0x65, 0x6e,
  0x73, 0x65, 0x5f, 0x35, 0x2f, 0x42, 0x69, 0x61, 0x73, 0x41, 0x64, 0x64,
  0x2f, 0x52, 0x65, 0x61, 0x64, 0x56, 0x61, 0x72, 0x69, 0x61, 0x62, 0x6c,
  0x65, 0x4f, 0x70, 0x00, 0x01, 0x00, 0x00, 0x00, 0x20, 0x00, 0x00, 0x00,
  0x00, 0x00, 0x16, 0x00, 0x18, 0x00, 0x14, 0x00, 0x00, 0x00, 0x10, 0x00,
  0x0c, 0x00, 0x08, 0x00, 0x00, 0x00, 0x00, 0x00, 0x00, 0x00, 0x07, 0x00,
  0x16, 0x00, 0x00, 0x00, 0x00, 0x00, 0x00, 0x01, 0x10, 0x00, 0x00, 0x00,
  0x10, 0x00, 0x00, 0x00, 0x02, 0x00, 0x00, 0x00, 0x38, 0x00, 0x00, 0x00,
  0x84, 0xff, 0xff, 0xff, 0x2b, 0x00, 0x00, 0x00, 0x73, 0x65, 0x71, 0x75,
  0x65, 0x6e, 0x74, 0x69, 0x61, 0x6c, 0x5f, 0x32, 0x2f, 0x64, 0x65, 0x6e,
  0x73, 0x65, 0x5f, 0x36, 0x2f, 0x42, 0x69, 0x61, 0x73, 0x41, 0x64, 0x64,
  0x2f, 0x52, 0x65, 0x61, 0x64, 0x56, 0x61, 0x72, 0x69, 0x61, 0x62, 0x6c,
  0x65, 0x4f, 0x70, 0x00, 0x01, 0x00, 0x00, 0x00, 0x04, 0x00, 0x00, 0x00,
  0x00, 0x00, 0x16, 0x00, 0x1c, 0x00, 0x18, 0x00, 0x00, 0x00, 0x14, 0x00,
  0x10, 0x00, 0x0c, 0x00, 0x00, 0x00, 0x00, 0x00, 0x08, 0x00, 0x07, 0x00,
  0x16, 0x00, 0x00, 0x00, 0x00, 0x00, 0x00, 0x01, 0x14, 0x00, 0x00, 0x00,
  0x20, 0x00, 0x00, 0x00, 0x20, 0x00, 0x00, 0x00, 0x01, 0x00, 0x00, 0x00,
  0x3c, 0x00, 0x00, 0x00, 0x02, 0x00, 0x00, 0x00, 0xff, 0xff, 0xff, 0xff,
  0x0a, 0x00, 0x00, 0x00, 0x04, 0x00, 0x04, 0x00, 0x04, 0x00, 0x00, 0x00,
  0x1f, 0x00, 0x00, 0x00, 0x73, 0x65, 0x72, 0x76, 0x69, 0x6e, 0x67, 0x5f,
  0x64, 0x65, 0x66, 0x61, 0x75, 0x6c, 0x74, 0x5f, 0x64, 0x65, 0x6e, 0x73,
  0x65, 0x5f, 0x34, 0x5f, 0x69, 0x6e, 0x70, 0x75, 0x74, 0x3a, 0x30, 0x00,
  0x02, 0x00, 0x00, 0x00, 0x01, 0x00, 0x00, 0x00, 0x0a, 0x00, 0x00, 0x00,
  0x02, 0x00, 0x00, 0x00, 0x20, 0x00, 0x00, 0x00, 0x04, 0x00, 0x00, 0x00,
  0xf4, 0xff, 0xff, 0xff, 0x19, 0x00, 0x00, 0x00, 0x00, 0x00, 0x00, 0x19,
  0x0c, 0x00, 0x0c, 0x00, 0x0b, 0x00, 0x00, 0x00, 0x00, 0x00, 0x04, 0x00,
  0x0c, 0x00, 0x00, 0x00, 0x09, 0x00, 0x00, 0x00, 0x00, 0x00, 0x00, 0x09
};
unsigned int model_tflite_len = 13788;
